{
  "version": "1.0",
  "truncation": null,
  "padding": null,
  "added_tokens": [
    {
      "id": 0,
      "content": "<|pad|>",
      "single_word": false,
      "lstrip": false,
      "rstrip": false,
      "normalized": false,
      "special": true
    },
    {
      "id": 1,
      "content": "<|bos|>",
      "single_word": false,
      "lstrip": false,
      "rstrip": false,
      "normalized": false,
      "special": true
    },
    {
      "id": 2,
      "content": "<|eos|>",
      "single_word": false,
      "lstrip": false,
      "rstrip": false,
      "normalized": false,
      "special": true
    },
    {
      "id": 3,
      "content": "<|fim_prefix|>",
      "single_word": false,
      "lstrip": false,
      "rstrip": false,
      "normalized": false,
      "special": true
    },
    {
      "id": 4,
      "content": "<|fim_middle|>",
      "single_word": false,
      "lstrip": false,
      "rstrip": false,
      "normalized": false,
      "special": true
    },
    {
      "id": 5,
      "content": "<|fim_suffix|>",
      "single_word": false,
      "lstrip": false,
      "rstrip": false,
      "normalized": false,
      "special": true
    }
  ],
  "normalizer": null,
  "pre_tokenizer": {
    "type": "ByteLevel",
    "add_prefix_space": false,
    "trim_offsets": true,
    "use_regex": true
  },
  "post_processor": {
    "type": "ByteLevel",
    "add_prefix_space": true,
    "trim_offsets": false,
    "use_regex": true
  },
  "decoder": {
    "type": "ByteLevel",
    "add_prefix_space": true,
    "trim_offsets": true,
    "use_regex": true
  },
  "model": {
    "type": "BPE",
    "dropout": null,
    "unk_token": null,
    "continuing_subword_prefix": null,
    "end_of_word_suffix": null,
    "fuse_unk": false,
    "byte_fallback": false,
    "ignore_merges": false,
    "vocab": {
      "<|pad|>": 0,
      "<|bos|>": 1,
      "<|eos|>": 2,
      "<|fim_prefix|>": 3,
      "<|fim_middle|>": 4,
      "<|fim_suffix|>": 5,
      "!": 6,
      "\"": 7,
      "#": 8,
      "$": 9,
      "%": 10,
      "&": 11,
      "'": 12,
      "(": 13,
      ")": 14,
      "*": 15,
      "+": 16,
      ",": 17,
      "-": 18,
      ".": 19,
      "/": 20,
      "0": 21,
      "1": 22,
      "2": 23,
      "3": 24,
      "4": 25,
      "5": 26,
      "6": 27,
      "7": 28,
      "8": 29,
      "9": 30,
      ":": 31,
      ";": 32,
      "<": 33,
      "=": 34,
      ">": 35,
      "?": 36,
      "@": 37,
      "A": 38,
      "B": 39,
      "C": 40,
      "D": 41,
      "E": 42,
      "F": 43,
      "G": 44,
      "H": 45,
      "I": 46,
      "J": 47,
      "K": 48,
      "L": 49,
      "M": 50,
      "N": 51,
      "O": 52,
      "P": 53,
      "Q": 54,
      "R": 55,
      "S": 56,
      "T": 57,
      "U": 58,
      "V": 59,
      "W": 60,
      "X": 61,
      "Y": 62,
      "Z": 63,
      "[": 64,
      "\\": 65,
      "]": 66,
      "^": 67,
      "_": 68,
      "`": 69,
      "a": 70,
      "b": 71,
      "c": 72,
      "d": 73,
      "e": 74,
      "f": 75,
      "g": 76,
      "h": 77,
      "i": 78,
      "j": 79,
      "k": 80,
      "l": 81,
      "m": 82,
      "n": 83,
      "o": 84,
      "p": 85,
      "q": 86,
      "r": 87,
      "s": 88,
      "t": 89,
      "u": 90,
      "v": 91,
      "w": 92,
      "x": 93,
      "y": 94,
      "z": 95,
      "{": 96,
      "|": 97,
      "}": 98,
      "~": 99,
      "¡": 100,
      "¢": 101,
      "£": 102,
      "¤": 103,
      "¥": 104,
      "¦": 105,
      "§": 106,
      "¨": 107,
      "©": 108,
      "ª": 109,
      "«": 110,
      "¬": 111,
      "®": 112,
      "¯": 113,
      "°": 114,
      "±": 115,
      "²": 116,
      "³": 117,
      "´": 118,
      "µ": 119,
      "¶": 120,
      "·": 121,
      "¸": 122,
      "¹": 123,
      "º": 124,
      "»": 125,
      "¼": 126,
      "½": 127,
      "¾": 128,
      "¿": 129,
      "À": 130,
      "Á": 131,
      "Â": 132,
      "Ã": 133,
      "Ä": 134,
      "Å": 135,
      "Æ": 136,
      "Ç": 137,
      "È": 138,
      "É": 139,
      "Ê": 140,
      "Ë": 141,
      "Ì": 142,
      "Í": 143,
      "Î": 144,
      "Ï": 145,
      "Ð": 146,
      "Ñ": 147,
      "Ò": 148,
      "Ó": 149,
      "Ô": 150,
      "Õ": 151,
      "Ö": 152,
      "×": 153,
      "Ø": 154,
      "Ù": 155,
      "Ú": 156,
      "Û": 157,
      "Ü": 158,
      "Ý": 159,
      "Þ": 160,
      "ß": 161,
      "à": 162,
      "á": 163,
      "â": 164,
      "ã": 165,
      "ä": 166,
      "å": 167,
      "æ": 168,
      "ç": 169,
      "è": 170,
      "é": 171,
      "ê": 172,
      "ë": 173,
      "ì": 174,
      "í": 175,
      "î": 176,
      "ï": 177,
      "ð": 178,
      "ñ": 179,
      "ò": 180,
      "ó": 181,
      "ô": 182,
      "õ": 183,
      "ö": 184,
      "÷": 185,
      "ø": 186,
      "ù": 187,
      "ú": 188,
      "û": 189,
      "ü": 190,
      "ý": 191,
      "þ": 192,
      "ÿ": 193,
      "Ā": 194,
      "ā": 195,
      "Ă": 196,
      "ă": 197,
      "Ą": 198,
      "ą": 199,
      "Ć": 200,
      "ć": 201,
      "Ĉ": 202,
      "ĉ": 203,
      "Ċ": 204,
      "ċ": 205,
      "Č": 206,
      "č": 207,
      "Ď": 208,
      "ď": 209,
      "Đ": 210,
      "đ": 211,
      "Ē": 212,
      "ē": 213,
      "Ĕ": 214,
      "ĕ": 215,
      "Ė": 216,
      "ė": 217,
      "Ę": 218,
      "ę": 219,
      "Ě": 220,
      "ě": 221,
      "Ĝ": 222,
      "ĝ": 223,
      "Ğ": 224,
      "ğ": 225,
      "Ġ": 226,
      "ġ": 227,
      "Ģ": 228,
      "ģ": 229,
      "Ĥ": 230,
      "ĥ": 231,
      "Ħ": 232,
      "ħ": 233,
      "Ĩ": 234,
      "ĩ": 235,
      "Ī": 236,
      "ī": 237,
      "Ĭ": 238,
      "ĭ": 239,
      "Į": 240,
      "į": 241,
      "İ": 242,
      "ı": 243,
      "Ĳ": 244,
      "ĳ": 245,
      "Ĵ": 246,
      "ĵ": 247,
      "Ķ": 248,
      "ķ": 249,
      "ĸ": 250,
      "Ĺ": 251,
      "ĺ": 252,
      "Ļ": 253,
      "ļ": 254,
      "Ľ": 255,
      "ľ": 256,
      "Ŀ": 257,
      "ŀ": 258,
      "Ł": 259,
      "ł": 260,
      "Ń": 261,
      "ĠĠ": 262,
      "ĠĠĠĠ": 263,
      "in": 264,
      "ĠĠĠ": 265,
      "re": 266,
      "on": 267,
      "Ġa": 268,
      "Ġt": 269,
      "or": 270,
      "st": 271,
      "le": 272,
      "er": 273,
      "**": 274,
      "at": 275,
      "it": 276,
      "ĊĠĠĠĠ": 277,
      "he": 278,
      "Ġc": 279,
      "Ġs": 280,
      "Ġ=": 281,
      "Ġp": 282,
      "Ġf": 283,
      "al": 284,
      "de": 285,
      "Ġn": 286,
      "ut": 287,
      "Ġi": 288,
      "ĊĠĠĠ": 289,
      "es": 290,
      "ion": 291,
      "Ġre": 292,
      "mp": 293,
      "ar": 294,
      "ac": 295,
      "Ġin": 296,
      "ĊĠĠĠĠĠĠĠ": 297,
      "en": 298,
      "ing": 299,
      "``": 300,
      ":**": 301,
      "an": 302,
      "Ġ{": 303,
      "ur": 304,
      "Ġb": 305,
      "Ġw": 306,
      ");": 307,
      "ap": 308,
      "Ġm": 309,
      "Ġthe": 310,
      "Ġ(": 311,
      "se": 312,
      "ue": 313,
      "ri": 314,
      "Ġe": 315,
      "ic": 316,
      "Ġst": 317,
      "Ġl": 318,
      "mple": 319,
      "Ġ}": 320,
      "un": 321,
      "ge": 322,
      "ĠO": 323,
      "Ġan": 324,
      "put": 325,
      "urn": 326,
      "turn": 327,
      "ro": 328,
      "Ġif": 329,
      "ed": 330,
      "Ġv": 331,
      "Ġo": 332,
      "th": 333,
      "Ġto": 334,
      "ct": 335,
      "Ex": 336,
      "ĊĠĠĠĠĠĠĠĠ": 337,
      "Ġfor": 338,
      "Ġreturn": 339,
      "ĠT": 340,
      "ity": 341,
      "ent": 342,
      "um": 343,
      "ode": 344,
      "```": 345,
      "Ġand": 346,
      "ot": 347,
      "is": 348,
      "ation": 349,
      "el": 350,
      "av": 351,
      "ist": 352,
      "ul": 353,
      "ĠS": 354,
      "iz": 355,
      "pl": 356,
      "im": 357,
      "Ġ1": 358,
      "Ġth": 359,
      "Ġd": 360,
      "ad": 361,
      "Ġ`": 362,
      "gh": 363,
      "ĊĠĠĠĠĠĠĠĠĠĠĠ": 364,
      "id": 365,
      "int": 366,
      "ort": 367,
      "as": 368,
      "ith": 369,
      "Ġne": 370,
      "ĊĠ": 371,
      "Ġ-": 372,
      "ra": 373,
      "In": 374,
      "Ġ0": 375,
      "ace": 376,
      "Ġle": 377,
      "Ġint": 378,
      "us": 379,
      "Ġcon": 380,
      "pt": 381,
      "Ġde": 382,
      "il": 383,
      "ve": 384,
      "ch": 385,
      "Ġwith": 386,
      "ize": 387,
      "ke": 388,
      "Ġval": 389,
      "ime": 390,
      "()": 391,
      "lo": 392,
      "ate": 393,
      "ment": 394,
      "ub": 395,
      "Ġco": 396,
      "Ġ<": 397,
      "pace": 398,
      "ord": 399,
      "Co": 400,
      "Ġ+": 401,
      "ava": 402,
      "ack": 403,
      "Ġg": 404,
      "ght": 405,
      "Ġ[": 406,
      "Ġr": 407,
      "ample": 408,
      "ce": 409,
      "utput": 410,
      "Not": 411,
      "Ġar": 412,
      "Expl": 413,
      "Input": 414,
      "ter": 415,
      "mplex": 416,
      "mplexity": 417,
      "elf": 418,
      "art": 419,
      "Example": 420,
      "ĠTime": 421,
      "Ġhe": 422,
      "ax": 423,
      "Ġit": 424,
      "ĠSpace": 425,
      "Output": 426,
      "anation": 427,
      "Complexity": 428,
      "Notes": 429,
      "Explanation": 430,
      "Ġh": 431,
      "Ġof": 432,
      "ata": 433,
      ").": 434,
      "Ġself": 435,
      "que": 436,
      "ction": 437,
      "ĠF": 438,
      "Ġlo": 439,
      "lic": 440,
      "Ġj": 441,
      "nt": 442,
      "ray": 443,
      "ĊĊĠĠĠ": 444,
      "ĠI": 445,
      "Ġ==": 446,
      "Ġon": 447,
      "rap": 448,
      "yth": 449,
      "ython": 450,
      "gth": 451,
      "up": 452,
      "Ġis": 453,
      "ring": 454,
      "Ġnum": 455,
      "Ġ->": 456,
      "xt": 457,
      "ne": 458,
      "ngth": 459,
      "ĠA": 460,
      "cri": 461,
      "ft": 462,
      "Ġ2": 463,
      "cript": 464,
      "Re": 465,
      "ty": 466,
      "ver": 467,
      "Ġse": 468,
      "::": 469,
      "key": 470,
      "ile": 471,
      "qu": 472,
      "te": 473,
      "Ġconst": 474,
      "ind": 475,
      "end": 476,
      "am": 477,
      "Ġthis": 478,
      "Ġpo": 479,
      "ublic": 480,
      "ĠW": 481,
      "ust": 482,
      "ĠL": 483,
      "ull": 484,
      "Ġbe": 485,
      "ks": 486,
      "ĊĠĠĠĠĠĠĠĠĠĠĠĠ": 487,
      "row": 488,
      "ĠP": 489,
      "Ġres": 490,
      "ult": 491,
      "],": 492,
      "rent": 493,
      "val": 494,
      "Ġor": 495,
      "res": 496,
      "ain": 497,
      "rom": 498,
      "em": 499,
      "Ġnew": 500,
      "Ġnode": 501,
      "and": 502,
      "];": 503,
      "Ġtr": 504,
      "age": 505,
      "ive": 506,
      "Ġbo": 507,
      "ush": 508,
      "ol": 509,
      "oid": 510,
      "Ġch": 511,
      "ĠJ": 512,
      "ab": 513,
      "Ġ*": 514,
      "get": 515,
      "))": 516,
      "queue": 517,
      "Ġad": 518,
      "mport": 519,
      "Ġlist": 520,
      "cur": 521,
      "Ġ\"": 522,
      "ight": 523,
      "mpty": 524,
      "Ġex": 525,
      "ly": 526,
      "Ġun": 527,
      "length": 528,
      "ror": 529,
      "();": 530,
      "ree": 531,
      "Ġarray": 532,
      "//": 533,
      "Ġbu": 534,
      "right": 535,
      "order": 536,
      "ĊĠĠĠĠĠ": 537,
      "mplement": 538,
      "data": 539,
      "Ġas": 540,
      "Ġcode": 541,
      "ath": 542,
      "ĠC": 543,
      "red": 544,
      "Ġmin": 545,
      "unction": 546,
      "++": 547,
      "per": 548,
      "ĠD": 549,
      "ces": 550,
      "pe": 551,
      "apac": 552,
      "Ġnull": 553,
      "ĊĠĠĠĠĠĠĠĠĠĠĠĠĠĠĠ": 554,
      "apacity": 555,
      "Ġwh": 556,
      "ition": 557,
      "ĠFor": 558,
      "ĠV": 559,
      "ass": 560,
      "Ġ:": 561,
      "ĠE": 562,
      "Ġus": 563,
      "ĠRe": 564,
      "ers": 565,
      "ĠJava": 566,
      "iv": 567,
      "ast": 568,
      "ĠN": 569,
      "(\"": 570,
      "lf": 571,
      "Ġstd": 572,
      "ds": 573,
      "self": 574,
      "ption": 575,
      "Ġal": 576,
      "Ġu": 577,
      "cl": 578,
      "op": 579,
      "Ġpro": 580,
      "ff": 581,
      "rit": 582,
      "Ġ3": 583,
      "raph": 584,
      "Ġdef": 585,
      "able": 586,
      "ded": 587,
      "max": 588,
      "ange": 589,
      "Ġvalue": 590,
      "Ġpublic": 591,
      "ase": 592,
      "Ġ>": 593,
      "lement": 594,
      "Ġjava": 595,
      "Ġorder": 596,
      "low": 597,
      "ser": 598,
      "Ġkey": 599,
      "igh": 600,
      "heap": 601,
      "Ġby": 602,
      "])": 603,
      "ach": 604,
      "import": 605,
      "Ġnums": 606,
      "co": 607,
      "con": 608,
      "avas": 609,
      "avascript": 610,
      "ĠU": 611,
      "Ġwhe": 612,
      "ĠM": 613,
      "Ġsize": 614,
      "size": 615,
      "ative": 616,
      "Ġelement": 617,
      "ial": 618,
      "Ġlet": 619,
      "ĠList": 620,
      "ep": 621,
      "Ġ&": 622,
      "ates": 623,
      "void": 624,
      "ict": 625,
      "Ġfi": 626,
      "Ġresult": 627,
      "arch": 628,
      "Ġx": 629,
      "Ġk": 630,
      "Ġempty": 631,
      "for": 632,
      "curs": 633,
      "sert": 634,
      "mal": 635,
      "ary": 636,
      "Ġdata": 637,
      "ĠImplement": 638,
      "Ġwhile": 639,
      "one": 640,
      "rite": 641,
      "\",": 642,
      "Ġac": 643,
      "isit": 644,
      "et": 645,
      "ig": 646,
      "Ġer": 647,
      "ĠH": 648,
      "Ġstack": 649,
      "Ċĉ": 650,
      "ru": 651,
      "Ġpart": 652,
      "Ġfrom": 653,
      "Ġarr": 654,
      "ail": 655,
      "ect": 656,
      "Ġavoid": 657,
      "Ġstring": 658,
      "Ġheap": 659,
      "next": 660,
      "Node": 661,
      "Ġat": 662,
      "Ġcl": 663,
      "Ġsh": 664,
      "Ġmax": 665,
      "[]": 666,
      "min": 667,
      "Ġpri": 668,
      "Ġfunction": 669,
      "\"\"": 670,
      "arent": 671,
      "oun": 672,
      "Ġiter": 673,
      "ĠPython": 674,
      "Ġstart": 675,
      "Ġsearch": 676,
      "andle": 677,
      "node": 678,
      "Ġcomp": 679,
      "Ġnumb": 680,
      "Ġqueue": 681,
      "def": 682,
      "Ġ<=": 683,
      "Ġper": 684,
      "Ġlar": 685,
      "Ġlog": 686,
      "Ġ'": 687,
      "ĠWrite": 688,
      "log": 689,
      "isited": 690,
      "Ġpush": 691,
      "cess": 692,
      "tri": 693,
      "Ġinput": 694,
      "Ġinsert": 695,
      "eded": 696,
      "ject": 697,
      "ream": 698,
      "Ġthrow": 699,
      "St": 700,
      "af": 701,
      "ĠB": 702,
      "Ġrecurs": 703,
      "Ġlin": 704,
      "out": 705,
      "ctor": 706,
      "Ġwhen": 707,
      "):": 708,
      "ts": 709,
      "Ġsort": 710,
      "Ġuse": 711,
      "mm": 712,
      "pp": 713,
      "Ġ//": 714,
      "all": 715,
      "alse": 716,
      "ations": 717,
      "Ġright": 718,
      "dex": 719,
      "Ġthat": 720,
      "ĠAd": 721,
      "Ġerror": 722,
      "port": 723,
      "Ġen": 724,
      "Ġstat": 725,
      "Ġvalid": 726,
      "Ġgraph": 727,
      "ger": 728,
      "vate": 729,
      "Ġfind": 730,
      "Ġover": 731,
      "Ġneeded": 732,
      "Ġleft": 733,
      "Ġpre": 734,
      "Ġeach": 735,
      "Ġchar": 736,
      "Ġpartition": 737,
      "ck": 738,
      "Ġty": 739,
      "left": 740,
      "cke": 741,
      "ank": 742,
      "Ġrange": 743,
      "FS": 744,
      "Script": 745,
      "bor": 746,
      "ighbor": 747,
      "Ġlarge": 748,
      "),": 749,
      "Ġadj": 750,
      "List": 751,
      "ache": 752,
      "ges": 753,
      "ure": 754,
      "Ġnot": 755,
      "push": 756,
      "Ġra": 757,
      "Ġare": 758,
      "Ġitem": 759,
      "Ġstatic": 760,
      "ore": 761,
      "Ġcapacity": 762,
      "ception": 763,
      "',": 764,
      "ow": 765,
      "Ġqu": 766,
      "Ġhead": 767,
      "num": 768,
      "rray": 769,
      "head": 770,
      "arr": 771,
      "read": 772,
      "ir": 773,
      "ues": 774,
      "ash": 775,
      "Ġlen": 776,
      "cle": 777,
      "python": 778,
      "public": 779,
      "ry": 780,
      "Ġ+=": 781,
      "Ġclass": 782,
      "Ġget": 783,
      "Ġlength": 784,
      "Ġprivate": 785,
      "('": 786,
      "ise": 787,
      "Ġpython": 788,
      "ire": 789,
      "Ġup": 790,
      "inal": 791,
      "Ġheight": 792,
      "Ġadd": 793,
      "Ġall": 794,
      "pop": 795,
      "Ġout": 796,
      "Ġpoint": 797,
      "bject": 798,
      "Ġ!": 799,
      "root": 800,
      "Ġoper": 801,
      "vector": 802,
      "Ġarrays": 803,
      "ex": 804,
      "ator": 805,
      "util": 806,
      "ĠJavaScript": 807,
      "act": 808,
      "Ġtrue": 809,
      "afe": 810,
      "\")": 811,
      "ron": 812,
      "ycle": 813,
      "ater": 814,
      "const": 815,
      "du": 816,
      "ies": 817,
      "tal": 818,
      "Ġtree": 819,
      "Ġfast": 820,
      "Ġvoid": 821,
      "Ġtotal": 822,
      "ay": 823,
      "yn": 824,
      "ĠR": 825,
      "ĠIn": 826,
      "_[": 827,
      "ole": 828,
      "ove": 829,
      "rror": 830,
      "Ġ|": 831,
      "orks": 832,
      "Ġword": 833,
      "Ġvisited": 834,
      "ely": 835,
      "ild": 836,
      "Ġbucke": 837,
      "ĠNone": 838,
      "cks": 839,
      "string": 840,
      "malle": 841,
      "map": 842,
      "ping": 843,
      "Ġ%": 844,
      "Ġ5": 845,
      "rows": 846,
      "clu": 847,
      "form": 848,
      "ide": 849,
      "java": 850,
      "Ġche": 851,
      "Ġcur": 852,
      "__": 853,
      "om": 854,
      "Ġelements": 855,
      "vel": 856,
      "ĠG": 857,
      "Ġinst": 858,
      "Ġel": 859,
      "ĠIter": 860,
      "Ġ:=": 861,
      "if": 862,
      "Ġsum": 863,
      "Ġnon": 864,
      "ard": 865,
      "Ġneighbor": 866,
      "upport": 867,
      "Ġboun": 868,
      "Ġusing": 869,
      "ruct": 870,
      "_.": 871,
      "len": 872,
      "Ġstream": 873,
      "unc": 874,
      "Ġrecursion": 875,
      "javascript": 876,
      "Ġpar": 877,
      "add": 878,
      "Ġjavascript": 879,
      "..": 880,
      "ek": 881,
      "Ġvalues": 882,
      "value": 883,
      "from": 884,
      "ren": 885,
      "Ġfn": 886,
      "Ġed": 887,
      "Ġcont": 888,
      "++)": 889,
      "ses": 890,
      "turns": 891,
      "Ġhandle": 892,
      "gs": 893,
      "Ġy": 894,
      "Ġtime": 895,
      "place": 896,
      "ame": 897,
      "clude": 898,
      "Ġ4": 899,
      "start": 900,
      "Ġparent": 901,
      "Ġmat": 902,
      "Ġ!=": 903,
      "tt": 904,
      "Ġend": 905,
      "Exception": 906,
      "Ġcol": 907,
      "`.": 908,
      "ec": 909,
      "ip": 910,
      "Ġfalse": 911,
      "ĠTh": 912,
      "ĠSt": 913,
      "plic": 914,
      "cy": 915,
      "wo": 916,
      "Ġso": 917,
      "class": 918,
      "\");": 919,
      "capacity": 920,
      "include": 921,
      "Ġcall": 922,
      "Ġback": 923,
      "Ġdep": 924,
      "Ġpop": 925,
      "ttp": 926,
      "inary": 927,
      "Ġcons": 928,
      "Ġ===": 929,
      "Ġelse": 930,
      "mut": 931,
      "ery": 932,
      "Ġsmalle": 933,
      "Ġpath": 934,
      "tern": 935,
      "rint": 936,
      "Ġcycle": 937,
      "Ġsupport": 938,
      "Ġwater": 939,
      "Ġmap": 940,
      "Ġ(!": 941,
      "ĠVal": 942,
      "nums": 943,
      "Ġupd": 944,
      "Le": 945,
      "]);": 946,
      "ans": 947,
      "unt": 948,
      "Ġpos": 949,
      "Ġ&&": 950,
      "Ġnumber": 951,
      "ead": 952,
      "Ġimport": 953,
      "Ġext": 954,
      "Ġchecks": 955,
      ">>": 956,
      "function": 957,
      "Ġke": 958,
      "Ġsol": 959,
      "Ġimplement": 960,
      "Ġstruct": 961,
      "Ġlevel": 962,
      "ix": 963,
      "sure": 964,
      "Ġreturns": 965,
      "ĠWorks": 966,
      "actor": 967,
      "Ġinstead": 968,
      "Ġkeep": 969,
      "let": 970,
      "Ġrem": 971,
      "Ġindex": 972,
      "Ġmut": 973,
      "this": 974,
      "Ġitems": 975,
      "eg": 976,
      "gg": 977,
      "ority": 978,
      "Ġ=>": 979,
      "ant": 980,
      "())": 981,
      "Ġone": 982,
      "ia": 983,
      "Ġfinal": 984,
      "ance": 985,
      "Ġmer": 986,
      "Ġthread": 987,
      "Ġdist": 988,
      "Ġacc": 989,
      "Ġ||": 990,
      "po": 991,
      "Ġtwo": 992,
      "Ġpl": 993,
      "Ġpage": 994,
      "ĠReturns": 995,
      "Ġfix": 996,
      "][": 997,
      "Ġid": 998,
      "ized": 999,
      "quest": 1000,
      "ĠFind": 1001,
      "ign": 1002,
      "Left": 1003,
      "._": 1004,
      "ok": 1005,
      "uld": 1006,
      "ress": 1007,
      "gative": 1008,
      "Ġnumbers": 1009,
      "String": 1010,
      "Ġsorted": 1011,
      "Ġsolve": 1012,
      "ould": 1013,
      "attern": 1014,
      "Ġfactor": 1015,
      "teger": 1016,
      "ĊĠĠĠĠĠĠĠĠĠĠĠĠĠĠĠĠ": 1017,
      "ains": 1018,
      "ĠAdd": 1019,
      "32": 1020,
      "find": 1021,
      "std": 1022,
      "ens": 1023,
      "ency": 1024,
      "Ġwe": 1025,
      "Ġwrap": 1026,
      "Ġobject": 1027,
      "Ġunion": 1028,
      "ptional": 1029,
      "ffer": 1030,
      "Ġoperations": 1031,
      "sing": 1032,
      "wap": 1033,
      "Ġsub": 1034,
      "char": 1035,
      "Ġgo": 1036,
      "qui": 1037,
      "eek": 1038,
      "fter": 1039,
      "ĊĊ": 1040,
      "Ġpeek": 1041,
      "Ġev": 1042,
      "ilter": 1043,
      "Ġlow": 1044,
      "lice": 1045,
      "Ġshould": 1046,
      "tries": 1047,
      "ront": 1048,
      "Ġbounds": 1049,
      "Ġidx": 1050,
      "Error": 1051,
      "Max": 1052,
      "Que": 1053,
      "ient": 1054,
      "ined": 1055,
      "Ġapp": 1056,
      "lete": 1057,
      "Ġslow": 1058,
      "acter": 1059,
      "Ġmust": 1060,
      "Ġthen": 1061,
      "Ġ10": 1062,
      "Ġrank": 1063,
      "Ġinsertion": 1064,
      "own": 1065,
      "(&": 1066,
      "mat": 1067,
      "pon": 1068,
      "Ġtri": 1069,
      "Ġrec": 1070,
      "qual": 1071,
      "ĠUse": 1072,
      "ĠMath": 1073,
      "Ġcharacter": 1074,
      "Ġneighbors": 1075,
      "Ġmerge": 1076,
      "Queue": 1077,
      "((": 1078,
      "]]": 1079,
      "est": 1080,
      "parent": 1081,
      "rue": 1082,
      "Ġ?": 1083,
      "ices": 1084,
      "().": 1085,
      "Ġcom": 1086,
      "ĠArray": 1087,
      "Ġ>=": 1088,
      "));": 1089,
      "aint": 1090,
      "che": 1091,
      "od": 1092,
      "ves": 1093,
      "Ġ/": 1094,
      "Ġent": 1095,
      "Ġaver": 1096,
      "Ġtar": 1097,
      "eric": 1098,
      "Ġcache": 1099,
      "imum": 1100,
      "Ġdict": 1101,
      "Ġnext": 1102,
      "Ġinto": 1103,
      "ntry": 1104,
      "Ġbool": 1105,
      "current": 1106,
      "Ġcurrent": 1107,
      "Ġfactorial": 1108,
      "Ġtarget": 1109,
      "bu": 1110,
      "rank": 1111,
      "tree": 1112,
      "use": 1113,
      "reg": 1114,
      "ments": 1115,
      "new": 1116,
      "Ġlists": 1117,
      "ggreg": 1118,
      "Ġaverage": 1119,
      "10": 1120,
      "Word": 1121,
      "boun": 1122,
      "cre": 1123,
      "to": 1124,
      "Ġroot": 1125,
      "Ġput": 1126,
      "Ġpub": 1127,
      "Ġgiv": 1128,
      "Ġhigh": 1129,
      "ivot": 1130,
      "Ġedges": 1131,
      "Ġyo": 1132,
      "Array": 1133,
      "ault": 1134,
      "flow": 1135,
      "ine": 1136,
      "ero": 1137,
      "rid": 1138,
      "adj": 1139,
      "iled": 1140,
      "Ġnodes": 1141,
      "Ġtyping": 1142,
      "irection": 1143,
      "]:": 1144,
      "ait": 1145,
      "of": 1146,
      "Ġcase": 1147,
      "gex": 1148,
      "Ġdo": 1149,
      "Ġ[]": 1150,
      "ĠUses": 1151,
      "Ġaccess": 1152,
      "ildren": 1153,
      "Ġdepth": 1154,
      "'s": 1155,
      "Right": 1156,
      "fore": 1157,
      "zero": 1158,
      "ormal": 1159,
      "Ġind": 1160,
      "ument": 1161,
      "Ġset": 1162,
      "Ġbefore": 1163,
      "Ġboole": 1164,
      "Ġlines": 1165,
      "Ġraise": 1166,
      "Ġbuckets": 1167,
      "_;": 1168,
      "`,": 1169,
      "ailed": 1170,
      "ling": 1171,
      "pri": 1172,
      "Ġtail": 1173,
      "ated": 1174,
      "ess": 1175,
      "rix": 1176,
      "ical": 1177,
      "ĠThe": 1178,
      "Ġprodu": 1179,
      "Ċĉĉ": 1180,
      "Ġenqueue": 1181,
      "Ġgiven": 1182,
      "gument": 1183,
      "list": 1184,
      "return": 1185,
      "item": 1186,
      "Ġsu": 1187,
      "Ġpivot": 1188,
      "sed": 1189,
      "set": 1190,
      "Ġstr": 1191,
      "edi": 1192,
      "],[": 1193,
      "Ġtrack": 1194,
      "Ġadjust": 1195,
      "Ġboolean": 1196,
      "].": 1197,
      "rst": 1198,
      "ss": 1199,
      "safe": 1200,
      "Ġzero": 1201,
      "Ġafter": 1202,
      "Ġmis": 1203,
      "cted": 1204,
      "aining": 1205,
      "Ġpref": 1206,
      "pes": 1207,
      "ong": 1208,
      "ute": 1209,
      "acency": 1210,
      "Ġmem": 1211,
      "ĠTo": 1212,
      "umul": 1213,
      "lock": 1214,
      "Ġdefault": 1215,
      "ĠBFS": 1216,
      "Ġline": 1217,
      "Ġchars": 1218,
      "Ġsupporting": 1219,
      "str": 1220,
      "Ġcan": 1221,
      "Ġsi": 1222,
      "Ġstep": 1223,
      "Ġvia": 1224,
      "ĠTri": 1225,
      "Ġwithout": 1226,
      "Ġcoin": 1227,
      "Ġgu": 1228,
      "Ġonly": 1229,
      "Ġtrans": 1230,
      "Ġboth": 1231,
      "Ġ\"\"\"": 1232,
      "ĠDFS": 1233,
      "ively": 1234,
      "\"\"\"": 1235,
      "ĠAdj": 1236,
      "okup": 1237,
      "ression": 1238,
      "ages": 1239,
      "func": 1240,
      "init": 1241,
      "Ġrequi": 1242,
      "Ġrun": 1243,
      "Ġwhere": 1244,
      "Ġheapq": 1245,
      "ync": 1246,
      "Ġbucket": 1247,
      "ĠValid": 1248,
      ".\"\"\"": 1249,
      "<>": 1250,
      "Lo": 1251,
      "Size": 1252,
      "fs": 1253,
      "Ġaggreg": 1254,
      "lection": 1255,
      "Ġsc": 1256,
      "Ġwor": 1257,
      "app": 1258,
      "ther": 1259,
      "ider": 1260,
      "Ġcount": 1261,
      "temp": 1262,
      "ĠDes": 1263,
      "Ġkeys": 1264,
      "Ġfirst": 1265,
      "etch": 1266,
      "Ġadjacency": 1267,
      "ĊĠĠĠĠĠĠĠĠĠĠĠĠĠĠĠĠĠĠĠ": 1268,
      "Ġweight": 1269,
      "irectional": 1270,
      "Ġindices": 1271,
      "The": 1272,
      "are": 1273,
      "back": 1274,
      "par": 1275,
      "rack": 1276,
      "ype": 1277,
      "Ġ__": 1278,
      "url": 1279,
      "Ġbinary": 1280,
      "Integer": 1281,
      "negative": 1282,
      "ĠJS": 1283,
      "Ġbug": 1284,
      "ĠminRight": 1285,
      "++;": 1286,
      "Ġusize": 1287,
      "Ġgraphs": 1288,
      "Ġoverflow": 1289,
      "Ġprev": 1290,
      "Ġlargest": 1291,
      "ĠAdjust": 1292,
      "->": 1293,
      "ON": 1294,
      "ag": 1295,
      "empty": 1296,
      "ked": 1297,
      "pub": 1298,
      "wait": 1299,
      "},": 1300,
      "atch": 1301,
      "Ġprint": 1302,
      "Ġbase": 1303,
      "eld": 1304,
      "idirectional": 1305,
      "cept": 1306,
      "ĠEn": 1307,
      "Ġshort": 1308,
      "Ġcompar": 1309,
      "Ġquic": 1310,
      "__(": 1311,
      "ĠDesign": 1312,
      "');": 1313,
      "bd": 1314,
      "ble": 1315,
      "hav": 1316,
      "ior": 1317,
      "move": 1318,
      "tailed": 1319,
      "ĊĊĠ": 1320,
      "Ġ#": 1321,
      "Ġ6": 1322,
      "Ġop": 1323,
      "idx": 1324,
      "Ġdetailed": 1325,
      "Ġhi": 1326,
      "ambd": 1327,
      "ĠReplace": 1328,
      "com": 1329,
      "\",\"": 1330,
      "Ġerrors": 1331,
      "Ġsmallest": 1332,
      "Ġcomments": 1333,
      "01": 1334,
      "case": 1335,
      "ĠCo": 1336,
      "reate": 1337,
      "Ġspace": 1338,
      "Ġthan": 1339,
      "ill": 1340,
      "(),": 1341,
      "Ġloop": 1342,
      "Ġbehav": 1343,
      "Ġexist": 1344,
      "Ġresults": 1345,
      "Ġiterative": 1346,
      "mmed": 1347,
      "Ġpointer": 1348,
      "Ġevict": 1349,
      "ponse": 1350,
      "ambda": 1351,
      "Ġbehavior": 1352,
      "Empty": 1353,
      "Entry": 1354,
      "ging": 1355,
      "ms": 1356,
      "son": 1357,
      "uplic": 1358,
      "ĠK": 1359,
      "Ġq": 1360,
      "orre": 1361,
      "Ġfile": 1362,
      "Ġfilter": 1363,
      "Ġrequest": 1364,
      "Ġreturning": 1365,
      "ization": 1366,
      "chron": 1367,
      "Ġgrid": 1368,
      "Ġhal": 1369,
      "Ġhand": 1370,
      "Ġlookup": 1371,
      "verse": 1372,
      "Ġproper": 1373,
      "ĠUn": 1374,
      "ĠHandle": 1375,
      "Ġinputs": 1376,
      "ynchron": 1377,
      "Ġupdates": 1378,
      "Ġrecord": 1379,
      "Ġcharacters": 1380,
      "ĠValidate": 1381,
      "ĠJSON": 1382,
      "Ġhandling": 1383,
      "';": 1384,
      "--": 1385,
      "Map": 1386,
      "ak": 1387,
      "amp": 1388,
      "fin": 1389,
      "go": 1390,
      "si": 1391,
      "ĠEx": 1392,
      "lect": 1393,
      "Ġrepe": 1394,
      "Ġregex": 1395,
      "Ġmay": 1396,
      "unk": 1397,
      "Ġol": 1398,
      "Ġdp": 1399,
      "Ġdis": 1400,
      "ĠIf": 1401,
      "valid": 1402,
      "Ġtry": 1403,
      "Ġconsider": 1404,
      "chars": 1405,
      "append": 1406,
      "')": 1407,
      "ST": 1408,
      "graph": 1409,
      "visited": 1410,
      "Ġrows": 1411,
      "eries": 1412,
      "Ġsk": 1413,
      "Ġfull": 1414,
      "ence": 1415,
      "Ġbidirectional": 1416,
      "Ġmain": 1417,
      "ries": 1418,
      "Ġdi": 1419,
      "ithm": 1420,
      "Ġits": 1421,
      "ĠError": 1422,
      "ount": 1423,
      "defined": 1424,
      "ĠpartitionA": 1425,
      "Ġpointers": 1426,
      "Ġmatrix": 1427,
      "essage": 1428,
      "edian": 1429,
      "ĠEnsure": 1430,
      "orrect": 1431,
      "NF": 1432,
      "cpp": 1433,
      "der": 1434,
      "http": 1435,
      "ning": 1436,
      "ating": 1437,
      "itial": 1438,
      "Ġside": 1439,
      "Ġpq": 1440,
      "Ġpattern": 1441,
      "urce": 1442,
      "Ġlast": 1443,
      "ĠOptional": 1444,
      "Ġany": 1445,
      "Ġduplic": 1446,
      "Ġrust": 1447,
      "Ġload": 1448,
      "ĠHash": 1449,
      "ĠmaxLeft": 1450,
      "Ġvalidate": 1451,
      "','": 1452,
      "Ġqueries": 1453,
      "ĠRust": 1454,
      "Ġsmaller": 1455,
      "Ġobjects": 1456,
      "dge": 1457,
      "ext": 1458,
      "has": 1459,
      "rust": 1460,
      "yst": 1461,
      "its": 1462,
      "Ġcle": 1463,
      "Ġsynchron": 1464,
      "dered": 1465,
      "uto": 1466,
      "ular": 1467,
      "Ġrb": 1468,
      "ĠFalse": 1469,
      "ĠWrap": 1470,
      "ĠNode": 1471,
      "Ġprocess": 1472,
      "Ġkth": 1473,
      "Ġyou": 1474,
      "finity": 1475,
      "ystem": 1476,
      ".,": 1477,
      "00": 1478,
      "De": 1479,
      "time": 1480,
      "word": 1481,
      "Ġ9": 1482,
      "ĠNot": 1483,
      "stack": 1484,
      "Ġswap": 1485,
      "Ġnormal": 1486,
      "Ġequal": 1487,
      "icate": 1488,
      "Ġoutput": 1489,
      "umb": 1490,
      "Ġdete": 1491,
      "Ġdequeue": 1492,
      "Ġhel": 1493,
      "ĠCon": 1494,
      "redicate": 1495,
      "ĠThis": 1496,
      "ĠString": 1497,
      "Ġupdate": 1498,
      "Ġextra": 1499,
      "Ġaccumul": 1500,
      "Ġtransform": 1501,
      "tempt": 1502,
      "Val": 1503,
      "beg": 1504,
      "cc": 1505,
      "jo": 1506,
      "tend": 1507,
      "ward": 1508,
      "Ġsafe": 1509,
      "Ġread": 1510,
      "Ġbre": 1511,
      "Ġme": 1512,
      "edge": 1513,
      "Ġother": 1514,
      "Ġdelete": 1515,
      "children": 1516,
      "Ġseg": 1517,
      "ĠVec": 1518,
      "comp": 1519,
      "Ġused": 1520,
      "ĠIterable": 1521,
      "Ġsource": 1522,
      "Ġconsole": 1523,
      "Ġentries": 1524,
      "pescript": 1525,
      "ĠExtend": 1526,
      "Ġrepeated": 1527,
      "begin": 1528,
      "\":": 1529,
      "\"]": 1530,
      "li": 1531,
      "pro": 1532,
      "try": 1533,
      "track": 1534,
      "Ġam": 1535,
      "Ġawait": 1536,
      "stamp": 1537,
      "ite": 1538,
      "ites": 1539,
      "deg": 1540,
      "mpl": 1541,
      "args": 1542,
      "Ġmult": 1543,
      "Ġlong": 1544,
      "ĠTrue": 1545,
      "otal": 1546,
      "izes": 1547,
      "uple": 1548,
      "Ġconstru": 1549,
      "Ġ*/": 1550,
      "Ġbuffer": 1551,
      "ĠDe": 1552,
      "Ġuses": 1553,
      "ffe": 1554,
      "ound": 1555,
      "mmand": 1556,
      "irst": 1557,
      "plicit": 1558,
      "ĠpageSize": 1559,
      "Ġlower": 1560,
      "lections": 1561,
      "Edge": 1562,
      "Tree": 1563,
      "gor": 1564,
      "io": 1565,
      "ose": 1566,
      "ores": 1567,
      "range": 1568,
      "Ġ.": 1569,
      "Ġ_": 1570,
      "ĠExpl": 1571,
      "Ġslice": 1572,
      "Ġfront": 1573,
      "Ġretries": 1574,
      "aned": 1575,
      "ances": 1576,
      "ueError": 1577,
      "ĠType": 1578,
      "ĠSystem": 1579,
      "Ġorig": 1580,
      "resent": 1581,
      "Ġperform": 1582,
      "example": 1583,
      "Ġbacktrack": 1584,
      "ĠValueError": 1585,
      "Ġprefer": 1586,
      "Ġshortest": 1587,
      "ĠExplain": 1588,
      "Ġoriginal": 1589,
      "20": 1590,
      "64": 1591,
      "=[": 1592,
      "RU": 1593,
      "_(": 1594,
      "fast": 1595,
      "mail": 1596,
      "rb": 1597,
      "};": 1598,
      "Ġnil": 1599,
      "Ġgen": 1600,
      "Ġ[[": 1601,
      "ending": 1602,
      "Ġuser": 1603,
      "ĠHT": 1604,
      "Ġavoids": 1605,
      "Ġpermut": 1606,
      "Ġquery": 1607,
      "irc": 1608,
      "ome": 1609,
      "Ġkeeps": 1610,
      "Ġappro": 1611,
      "Ġsimple": 1612,
      "ĠTrie": 1613,
      "<>();": 1614,
      "itespace": 1615,
      "ale": 1616,
      "base": 1617,
      "off": 1618,
      "page": 1619,
      "sum": 1620,
      "inue": 1621,
      "Ġtim": 1622,
      "hen": 1623,
      "Ġcorrect": 1624,
      "Ġfl": 1625,
      "Ġflo": 1626,
      "Ġmessage": 1627,
      "Ġ};": 1628,
      "isEmpty": 1629,
      "ĠSome": 1630,
      "orted": 1631,
      "ases": 1632,
      "Ġ[];": 1633,
      "Ġhash": 1634,
      "maxLeft": 1635,
      "Ġ>>": 1636,
      "Ġcompression": 1637,
      "afely": 1638,
      "Ġensure": 1639,
      "Ġedge": 1640,
      "ĠThrows": 1641,
      "Ġposition": 1642,
      "Ġdiction": 1643,
      "Ġrequired": 1644,
      "ĠminRightB": 1645,
      "ĠHandles": 1646,
      "ĠmaxLeftB": 1647,
      "umber": 1648,
      "ircular": 1649,
      "maxLeftA": 1650,
      "ake": 1651,
      "col": 1652,
      "front": 1653,
      "gra": 1654,
      "name": 1655,
      "part": 1656,
      "ugh": 1657,
      "wit": 1658,
      "Ġauto": 1659,
      "Ġsafely": 1660,
      "dest": 1661,
      "ari": 1662,
      "Ġmar": 1663,
      "Ġ(`": 1664,
      "riority": 1665,
      "ics": 1666,
      "eds": 1667,
      "Ġvery": 1668,
      "Ġthro": 1669,
      "ksort": 1670,
      "Ġresp": 1671,
      "Ġtrav": 1672,
      "Ġexp": 1673,
      "Ġexplicit": 1674,
      "Ġundefined": 1675,
      "Ġwhitespace": 1676,
      "Ġprov": 1677,
      "ĠListNode": 1678,
      "Ġpriority": 1679,
      "Ġwords": 1680,
      "Ġcontinue": 1681,
      "point": 1682,
      "items": 1683,
      "Ġprevent": 1684,
      "Ġskip": 1685,
      "Ġdiffe": 1686,
      "witch": 1687,
      "=\"": 1688,
      "ER": 1689,
      "Pages": 1690,
      "TP": 1691,
      "hi": 1692,
      "uce": 1693,
      "ref": 1694,
      "ler": 1695,
      "erial": 1696,
      "Ġsing": 1697,
      "delete": 1698,
      "acc": 1699,
      "Ġbut": 1700,
      "Ġmove": 1701,
      "Ġmake": 1702,
      "Ġstore": 1703,
      "Ġ});": 1704,
      "Ġver": 1705,
      "Ġoptional": 1706,
      "ĠSelf": 1707,
      "plit": 1708,
      "Ġconcurrent": 1709,
      "Ġcop": 1710,
      "type": 1711,
      "Ġseen": 1712,
      "Ġexception": 1713,
      "reduce": 1714,
      "peek": 1715,
      "cond": 1716,
      "ĠHttp": 1717,
      "mmon": 1718,
      "Ġtype": 1719,
      "Ġsums": 1720,
      "Ġplus": 1721,
      "Ġmissing": 1722,
      "Ġguar": 1723,
      "Ġbreak": 1724,
      "gorithm": 1725,
      "riorityQueue": 1726,
      "Ġthrough": 1727,
      "':": 1728,
      "Hash": 1729,
      "first": 1730,
      "present": 1731,
      "so": 1732,
      "tail": 1733,
      "total": 1734,
      "we": 1735,
      "Ġrow": 1736,
      "index": 1737,
      "ory": 1738,
      "itive": 1739,
      "Ġcap": 1740,
      "Ġpredicate": 1741,
      "Ġfail": 1742,
      "utes": 1743,
      "Ġmod": 1744,
      "Ġstor": 1745,
      "Ġla": 1746,
      "elds": 1747,
      "ackage": 1748,
      "neighbor": 1749,
      "vert": 1750,
      "Ġattempt": 1751,
      "Ġvalidation": 1752,
      "Ġoverw": 1753,
      "irected": 1754,
      "...": 1755,
      "Ġyi": 1756,
      "Ġremo": 1757,
      "Ġtrimmed": 1758,
      "Ġaggregate": 1759,
      "Ġquicksort": 1760,
      "Ġduplicates": 1761,
      "ĠWraps": 1762,
      "Deque": 1763,
      "Ġhelper": 1764,
      "Ġperformance": 1765,
      "partition": 1766,
      "Ar": 1767,
      "File": 1768,
      "Set": 1769,
      "ca": 1770,
      "eap": 1771,
      "pq": 1772,
      "path": 1773,
      "package": 1774,
      "âĢ": 1775,
      "Ġ7": 1776,
      "Ġutil": 1777,
      "remove": 1778,
      "Ġredu": 1779,
      "Ġretry": 1780,
      "aces": 1781,
      "Ġinitial": 1782,
      "Ġworks": 1783,
      "union": 1784,
      "Ġdeep": 1785,
      "Ġargs": 1786,
      "text": 1787,
      "reser": 1788,
      "Ġexce": 1789,
      "ĠRecurs": 1790,
      "Ġfib": 1791,
      "Stream": 1792,
      "ĠGo": 1793,
      "Ġappend": 1794,
      "Ġdoes": 1795,
      "Ġmemory": 1796,
      "Ġhalves": 1797,
      "Ġsingle": 1798,
      ")`": 1799,
      ">(": 1800,
      "Heap": 1801,
      "]+": 1802,
      "cing": 1803,
      "full": 1804,
      "har": 1805,
      "line": 1806,
      "lambda": 1807,
      "uch": 1808,
      "Ġro": 1809,
      "Ġref": 1810,
      "Ġrepresent": 1811,
      "Ġwal": 1812,
      "Ġeff": 1813,
      "ison": 1814,
      "Ġdfs": 1815,
      "asing": 1816,
      "Comp": 1817,
      "Ġ[\"": 1818,
      "Ġhas": 1819,
      "ĠFix": 1820,
      "Ġonce": 1821,
      "ĠLRU": 1822,
      "ĠCreate": 1823,
      "Ġminimum": 1824,
      "Ġalgorithm": 1825,
      "Ġparts": 1826,
      "export": 1827,
      "ches": 1828,
      "Ġworst": 1829,
      "Ġcomparison": 1830,
      "ĠUnion": 1831,
      "Ġdetection": 1832,
      "Ġconstructor": 1833,
      "Ġgener": 1834,
      "based": 1835,
      "Ġtravers": 1836,
      "Ġlaz": 1837,
      "Ġutility": 1838,
      ")=": 1839,
      "-]+": 1840,
      "Za": 1841,
      "]];": 1842,
      "cache": 1843,
      "ph": 1844,
      "ys": 1845,
      "inked": 1846,
      "ono": 1847,
      "height": 1848,
      "Ġswitch": 1849,
      "Ġretri": 1850,
      "Ġincre": 1851,
      "Ġmaint": 1852,
      "Ġthem": 1853,
      "gest": 1854,
      "ortized": 1855,
      "using": 1856,
      "Ġconne": 1857,
      "uble": 1858,
      "ĠWhen": 1859,
      "ĠLo": 1860,
      "core": 1861,
      "Ġerr": 1862,
      "Ġlogging": 1863,
      "ators": 1864,
      "ĠGraph": 1865,
      "Ġoldest": 1866,
      "joint": 1867,
      "ĠHTTP": 1868,
      "Ġdictionary": 1869,
      "âĢĻ": 1870,
      "Ġeffic": 1871,
      "Ġretrie": 1872,
      "/**": 1873,
      "24": 1874,
      "://": 1875,
      "Find": 1876,
      "Res": 1877,
      "`)": 1878,
      "ced": 1879,
      "dict": 1880,
      "fig": 1881,
      "gal": 1882,
      "lle": 1883,
      "print": 1884,
      "Ġ@": 1885,
      "Ġpreser": 1886,
      "Ġimp": 1887,
      "Ġreject": 1888,
      "Ġindeg": 1889,
      "Ġmid": 1890,
      "Ġmet": 1891,
      "und": 1892,
      "Ġnegative": 1893,
      "Ġ[{": 1894,
      "ĠIlle": 1895,
      "Ġbest": 1896,
      "abc": 1897,
      "Ġadv": 1898,
      "Ġasync": 1899,
      "command": 1900,
      "cont": 1901,
      "Ġstrings": 1902,
      "Ġmaximum": 1903,
      "Ġiteration": 1904,
      "trim": 1905,
      "irs": 1906,
      "iple": 1907,
      "Ġextr": 1908,
      "ĠArrayList": 1909,
      "Arrays": 1910,
      "Ġproduction": 1911,
      "Ġtracking": 1912,
      "Ġrecords": 1913,
      "NFO": 1914,
      "Ġcleaned": 1915,
      "Ġpreferred": 1916,
      "Ġapproach": 1917,
      "Ġ>>=": 1918,
      "Ġcopy": 1919,
      "Ġexceptions": 1920,
      "Ġreduce": 1921,
      "Ġtraversal": 1922,
      "ĠIllegal": 1923,
      "*;": 1924,
      ".*;": 1925,
      "LI": 1926,
      "OR": 1927,
      "With": 1928,
      "dist": 1929,
      "equal": 1930,
      "ib": 1931,
      "jk": 1932,
      "mant": 1933,
      "mono": 1934,
      "ool": 1935,
      "rees": 1936,
      "Ġap": 1937,
      "Ġtmp": 1938,
      "stat": 1939,
      "att": 1940,
      "iter": 1941,
      "Ġfunc": 1942,
      "Ġno": 1943,
      "array": 1944,
      "Ġmedian": 1945,
      "Ġ((": 1946,
      "Ġemail": 1947,
      "umm": 1948,
      "ises": 1949,
      "aves": 1950,
      "Ġcost": 1951,
      "Ġcommon": 1952,
      "Ġgrows": 1953,
      "Ġhol": 1954,
      "Ġsemant": 1955,
      "ĠDict": 1956,
      "ĠrightMax": 1957,
      "ĠleftMax": 1958,
      "ĠInteger": 1959,
      "Ġparse": 1960,
      "Ġcontains": 1961,
      "Ġtimestamp": 1962,
      "Ġcalls": 1963,
      "Ġgoal": 1964,
      "bucke": 1965,
      "agin": 1966,
      "https": 1967,
      "Ġsegment": 1968,
      "Ġpermutations": 1969,
      "Ġmark": 1970,
      "Ġefficient": 1971,
      "Ġsemantics": 1972,
      "Cl": 1973,
      "ET": 1974,
      "Number": 1975,
      "Object": 1976,
      "dp": 1977,
      "eger": 1978,
      "fetch": 1979,
      "gain": 1980,
      "ln": 1981,
      "lay": 1982,
      "ny": 1983,
      "til": 1984,
      "wise": 1985,
      "Ġ$": 1986,
      "rev": 1987,
      "Ġagain": 1988,
      "ors": 1989,
      "ordered": 1990,
      "Ġspe": 1991,
      "Ġfetch": 1992,
      "ally": 1993,
      "Ġrel": 1994,
      "ann": 1995,
      "ĠOption": 1996,
      "Ġtok": 1997,
      "ĠTree": 1998,
      "ĠSet": 1999,
      "izing": 2000,
      "());": 2001,
      "loc": 2002,
      "amount": 2003,
      "Ġchildren": 2004,
      "Ġchunk": 2005,
      "Ġbuild": 2006,
      "ĠMap": 2007,
      "Ġlarger": 2008,
      "ĠBST": 2009,
      "Ġrecursively": 2010,
      "Ġlinks": 2011,
      "cked": 2012,
      "Ġoperation": 2013,
      "Ġsumm": 2014,
      "Ġmatch": 2015,
      "Ġcols": 2016,
      "Ġfixed": 2017,
      "Ġmerged": 2018,
      "Ġyour": 2019,
      "Ġcoins": 2020,
      "Ġguard": 2021,
      "Ġscrap": 2022,
      "Ġexists": 2023,
      "Ġrepeatedly": 2024,
      "ĠTrieNode": 2025,
      "Ġdifferent": 2026,
      "ĠTreeNode": 2027,
      "({": 2028,
      ")]": 2029,
      "Binary": 2030,
      "Con": 2031,
      "Path": 2032,
      "]`": 2033,
      "ew": 2034,
      "fn": 2035,
      "flo": 2036,
      "smalle": 2037,
      "ures": 2038,
      "insert": 2039,
      "Ġtrap": 2040,
      "Ġcatch": 2041,
      "Ġfs": 2042,
      "ions": 2043,
      "Ġlim": 2044,
      "round": 2045,
      "asic": 2046,
      "Ġinter": 2047,
      "ility": 2048,
      "()`": 2049,
      "Ġcoun": 2050,
      "Ġargument": 2051,
      "Ġoff": 2052,
      "Ġlock": 2053,
      "ĠAny": 2054,
      "Request": 2055,
      "Retries": 2056,
      "quence": 2057,
      "tem": 2058,
      "Ġbeca": 2059,
      "Ġuntil": 2060,
      "ĠCh": 2061,
      "rites": 2062,
      "ĠMaint": 2063,
      "Ġstarting": 2064,
      "ĠpartitionB": 2065,
      "ĠtotalPages": 2066,
      "ĠIterative": 2067,
      "Ġbound": 2068,
      "Ġstreaming": 2069,
      "Ġhandler": 2070,
      "Ġtimeout": 2071,
      "Ġ!==": 2072,
      "Ġpaths": 2073,
      "Ġstructure": 2074,
      "Ġeviction": 2075,
      "sired": 2076,
      "Valid": 2077,
      "2024": 2078,
      "Ġtimer": 2079,
      "Ġfloat": 2080,
      "Argument": 2081,
      "smallest": 2082,
      "Ġbecause": 2083,
      "Bu": 2084,
      "INFO": 2085,
      "MA": 2086,
      "Math": 2087,
      "`;": 2088,
      "cord": 2089,
      "ccess": 2090,
      "do": 2091,
      "hash": 2092,
      "ied": 2093,
      "ijk": 2094,
      "mt": 2095,
      "nr": 2096,
      "ored": 2097,
      "split": 2098,
      "true": 2099,
      "ĊĊĠĠĠĠĠĠĠ": 2100,
      "ĠĠĠĠĠĠĠ": 2101,
      "inel": 2102,
      "returns": 2103,
      "Ġtable": 2104,
      "Ġcases": 2105,
      "Ġsent": 2106,
      "Ġpass": 2107,
      "alind": 2108,
      "aller": 2109,
      "Ġbar": 2110,
      "second": 2111,
      "ĠObject": 2112,
      "ads": 2113,
      "Ġ`<": 2114,
      "Ġneed": 2115,
      "Int": 2116,
      "Infinity": 2117,
      "Ġdesired": 2118,
      "Ġwithin": 2119,
      "Ġcomplexity": 2120,
      "Reverse": 2121,
      "ĠLe": 2122,
      "Ġbet": 2123,
      "ĠPro": 2124,
      "Ġexpl": 2125,
      "reet": 2126,
      "Ġbuf": 2127,
      "ĠEntry": 2128,
      "Ġallow": 2129,
      "count": 2130,
      "Ġfield": 2131,
      "ĠGET": 2132,
      "Ġcontaining": 2133,
      "iag": 2134,
      "bounds": 2135,
      "private": 2136,
      "Ġtails": 2137,
      "Ġprefix": 2138,
      "Ġsteps": 2139,
      "Ġrunning": 2140,
      "parse": 2141,
      "Ġsynchronized": 2142,
      "beginWord": 2143,
      "Ġamount": 2144,
      "ariant": 2145,
      "Ġlazy": 2146,
      "Ġappl": 2147,
      "Client": 2148,
      "Objects": 2149,
      "Ġagainst": 2150,
      "Ġsentinel": 2151,
      "alindrom": 2152,
      ">,": 2153,
      "Hel": 2154,
      "Http": 2155,
      "Ke": 2156,
      "None": 2157,
      "Sorted": 2158,
      "`/": 2159,
      "by": 2160,
      "iary": 2161,
      "slice": 2162,
      "ux": 2163,
      "yd": 2164,
      "Ġab": 2165,
      "Ġaux": 2166,
      "sted": 2167,
      "stra": 2168,
      "Ġsp": 2169,
      "arize": 2170,
      "around": 2171,
      "Ġinvalid": 2172,
      "Ġstored": 2173,
      "Ġlambda": 2174,
      "ĠOn": 2175,
      "Ġvers": 2176,
      "umes": 2177,
      "ĠSumm": 2178,
      "Ġdue": 2179,
      "Ġdiag": 2180,
      "Ġdeque": 2181,
      "iliary": 2182,
      "Ġ<<": 2183,
      "Ġhow": 2184,
      "ĠAss": 2185,
      "Return": 2186,
      "typescript": 2187,
      "ĠLO": 2188,
      "ĠCLI": 2189,
      "ivis": 2190,
      "lower": 2191,
      "Ġiterate": 2192,
      "Ġoverhead": 2193,
      "Ġtypescript": 2194,
      "Ġrain": 2195,
      "ĠIndex": 2196,
      "Ġcheck": 2197,
      "ĠIterates": 2198,
      "Ġparsed": 2199,
      "Ġcollect": 2200,
      "ĠThread": 2201,
      "egment": 2202,
      "Ġeven": 2203,
      "Ġentry": 2204,
      "Ġsucc": 2205,
      "Log": 2206,
      "Ġquick": 2207,
      "Ġrequests": 2208,
      "--;": 2209,
      "Ġdisjoint": 2210,
      "Ġsafety": 2211,
      "Ġmeth": 2212,
      "Ġmultiple": 2213,
      "ĠTypeScript": 2214,
      "Ġcorrectly": 2215,
      "Ġexpression": 2216,
      "Ġprovide": 2217,
      "ĠUnionFind": 2218,
      "println": 2219,
      "equals": 2220,
      "SortedArrays": 2221,
      "Ġauxiliary": 2222,
      "ĠAssumes": 2223,
      "Back": 2224,
      "Min": 2225,
      "filter": 2226,
      "impl": 2227,
      "json": 2228,
      "ld": 2229,
      "mortized": 2230,
      "nc": 2231,
      "nown": 2232,
      "Ġri": 2233,
      "ongest": 2234,
      "Ġaround": 2235,
      "ork": 2236,
      "atively": 2237,
      "Ġnc": 2238,
      "Ġinward": 2239,
      "Ġbasic": 2240,
      "search": 2241,
      "unordered": 2242,
      "Ġvisit": 2243,
      "Ġtop": 2244,
      "Ġformat": 2245,
      "entative": 2246,
      "ential": 2247,
      "Ġ-=": 2248,
      "Ġinteger": 2249,
      "user": 2250,
      "Ġdelet": 2251,
      "loyd": 2252,
      "ĠFloyd": 2253,
      "Ġnumeric": 2254,
      "nei": 2255,
      "net": 2256,
      "ĠAvoid": 2257,
      "ĠAmortized": 2258,
      "endWord": 2259,
      "ustom": 2260,
      "emo": 2261,
      "ands": 2262,
      "Ġbod": 2263,
      "Ġ*=": 2264,
      ")):": 2265,
      "Ġunite": 2266,
      "Ġwhat": 2267,
      "ĠEach": 2268,
      "heappush": 2269,
      "]):": 2270,
      "Stack": 2271,
      "ĠBinary": 2272,
      "Ġvalidates": 2273,
      "ListNode": 2274,
      "ify": 2275,
      "ific": 2276,
      "Ġstreams": 2277,
      "Ġcollections": 2278,
      "Ġdepending": 2279,
      "Ġcycles": 2280,
      "Ġdistance": 2281,
      "Ġdistances": 2282,
      "Ġplaint": 2283,
      "Ġsubcommand": 2284,
      "match": 2285,
      "chedu": 2286,
      "Ġmemo": 2287,
      "Ġruns": 2288,
      "ĠKe": 2289,
      "Ġstoring": 2290,
      "Ġimpro": 2291,
      "contains": 2292,
      "Ġholds": 2293,
      "ĠLeaves": 2294,
      "`/`": 2295,
      "Ġplaintext": 2296,
      "![": 2297,
      "([": 2298,
      ",\"": 2299,
      "Capacity": 2300,
      "DFS": 2301,
      "Fi": 2302,
      "Median": 2303,
      "Un": 2304,
      "card": 2305,
      "pen": 2306,
      "ped": 2307,
      "}`": 2308,
      "Î±": 2309,
      "Ġ~": 2310,
      "invalid": 2311,
      "erate": 2312,
      "ately": 2313,
      "hel": 2314,
      "hes": 2315,
      "Ġpagin": 2316,
      "Ġfound": 2317,
      "Ġreache": 2318,
      "Ġreplace": 2319,
      "Ġreset": 2320,
      "Ġreverse": 2321,
      "arly": 2322,
      "aries": 2323,
      "Ġ{}": 2324,
      "Ġmore": 2325,
      "ross": 2326,
      "ĊĠĠĠĠĠĠĠĠĠ": 2327,
      "ĠTuple": 2328,
      "istic": 2329,
      "ĠSwap": 2330,
      "plo": 2331,
      "Ġdirs": 2332,
      "Ġnested": 2333,
      "chunk": 2334,
      "Ġgr": 2335,
      "Ġhere": 2336,
      "Ġlocks": 2337,
      "ĠINF": 2338,
      "Record": 2339,
      "tect": 2340,
      "ĠPage": 2341,
      "Ġresponse": 2342,
      "response": 2343,
      "old": 2344,
      "Ġchange": 2345,
      "ability": 2346,
      "curren": 2347,
      "Ġexpon": 2348,
      "ĠCircular": 2349,
      "cessed": 2350,
      "pect": 2351,
      "ĠReturn": 2352,
      "ĠRequi": 2353,
      "ĠNo": 2354,
      "Ġalph": 2355,
      "heappop": 2356,
      "conne": 2357,
      "ĠMin": 2358,
      "ĠImplements": 2359,
      "Ġacross": 2360,
      "Ġcompute": 2361,
      "trimmed": 2362,
      "Ġrecursive": 2363,
      "Ġ//=": 2364,
      "ĠfindMedian": 2365,
      "Ġtypes": 2366,
      "numeric": 2367,
      "ĠRes": 2368,
      "omain": 2369,
      "Ġhandles": 2370,
      "ĠendWord": 2371,
      "Ġbackoff": 2372,
      "Ġpositive": 2373,
      "bounded": 2374,
      "create": 2375,
      "priority": 2376,
      "Ċĉĉĉ": 2377,
      "Ġrequires": 2378,
      "Ġwork": 2379,
      "ĠminRightA": 2380,
      "},{": 2381,
      "Ġhalf": 2382,
      "Ġold": 2383,
      "Ġprocessing": 2384,
      "Ġaccumulator": 2385,
      "Ġmulti": 2386,
      "ĠensureCapacity": 2387,
      "Ġyields": 2388,
      "Ġcomparisons": 2389,
      "ĠLog": 2390,
      "Ġretrieval": 2391,
      "Ġextract": 2392,
      "ĠIllegalArgument": 2393,
      "status": 2394,
      "Ġtokens": 2395,
      "Ġarguments": 2396,
      "ĠMaintains": 2397,
      "Buffer": 2398,
      "Ġversion": 2399,
      "egmentTree": 2400,
      "ĠRequires": 2401,
      "ĠfindMedianSortedArrays": 2402,
      "ĠIllegalArgumentException": 2403,
      "(|": 2404,
      "([]": 2405,
      ")];": 2406,
      ":\"": 2407,
      ":[": 2408,
      "As": 2409,
      "Char": 2410,
      "Dict": 2411,
      "Element": 2412,
      "PriorityQueue": 2413,
      "Vec": 2414,
      "[:": 2415,
      "]{": 2416,
      "_,": 2417,
      "bers": 2418,
      "bose": 2419,
      "cat": 2420,
      "cific": 2421,
      "down": 2422,
      "grid": 2423,
      "href": 2424,
      "lim": 2425,
      "long": 2426,
      "mid": 2427,
      "swap": 2428,
      "uation": 2429,
      "way": 2430,
      "yon": 2431,
      "}]": 2432,
      "Ġ8": 2433,
      "ĠQueue": 2434,
      "ines": 2435,
      "Ġtentative": 2436,
      "err": 2437,
      "Ġsqu": 2438,
      "Ġserial": 2439,
      "Ġimm": 2440,
      "Ġreconst": 2441,
      "arning": 2442,
      "Ġinvert": 2443,
      "ante": 2444,
      "Ġwill": 2445,
      "Ġeval": 2446,
      "ich": 2447,
      "Ġli": 2448,
      "ĠOr": 2449,
      "Ġvec": 2450,
      "ĠTrap": 2451,
      "ell": 2452,
      "Ġdown": 2453,
      "Ġdirected": 2454,
      "Ġdivis": 2455,
      "ask": 2456,
      "Ġleast": 2457,
      "Ġinteg": 2458,
      "Ġgrow": 2459,
      "Ġrath": 2460,
      "Read": 2461,
      "quiv": 2462,
      "Ġbeyon": 2463,
      "ĠPriorityQueue": 2464,
      "resp": 2465,
      "romise": 2466,
      "andard": 2467,
      "Ġchann": 2468,
      ")))": 2469,
      "Ġuns": 2470,
      "ĠCall": 2471,
      "Ġwhich": 2472,
      "ĠNormal": 2473,
      "Ġuf": 2474,
      "Ġordering": 2475,
      "Ġ&[": 2476,
      "Ġclient": 2477,
      "ĠmaxRetries": 2478,
      "Ġiterable": 2479,
      "andler": 2480,
      "Ġcomputes": 2481,
      "Ġthrows": 2482,
      "mming": 2483,
      "),(": 2484,
      "Ġheights": 2485,
      "Ġaddition": 2486,
      "ynam": 2487,
      "adder": 2488,
      "ameter": 2489,
      "Ġremain": 2490,
      "Ġremaining": 2491,
      "Ġsubse": 2492,
      "Ġcomb": 2493,
      "Ġdouble": 2494,
      "Ġweights": 2495,
      "ĠHashable": 2496,
      "alent": 2497,
      "collections": 2498,
      "pointer": 2499,
      "Ġoptionally": 2500,
      "Ġguarante": 2501,
      "Ġexceeds": 2502,
      "fully": 2503,
      "Ġwalk": 2504,
      "Ġcounts": 2505,
      "ijkstra": 2506,
      "alindrome": 2507,
      "Key": 2508,
      "ĠSummary": 2509,
      "ĠIndexError": 2510,
      "pename": 2511,
      "hello": 2512,
      "arnings": 2513,
      "ĠTrapping": 2514,
      "Ġrather": 2515,
      "quivalent": 2516,
      "Ġbeyond": 2517,
      "Ġchannel": 2518,
      ",-": 2519,
      ":'": 2520,
      "CT": 2521,
      "Code": 2522,
      "Cache": 2523,
      "Of": 2524,
      "OException": 2525,
      "Sup": 2526,
      "Safe": 2527,
      "Score": 2528,
      "Up": 2529,
      "Var": 2530,
      "Warnings": 2531,
      "bj": 2532,
      "file": 2533,
      "fmt": 2534,
      "ided": 2535,
      "mn": 2536,
      "os": 2537,
      "pol": 2538,
      "press": 2539,
      "rans": 2540,
      "sg": 2541,
      "sort": 2542,
      "tc": 2543,
      "ured": 2544,
      "var": 2545,
      "ving": 2546,
      "Ġact": 2547,
      "error": 2548,
      "ats": 2549,
      "hecked": 2550,
      "Ġcustom": 2551,
      "Ġsur": 2552,
      "Ġsame": 2553,
      "Ġsign": 2554,
      "deque": 2555,
      "dequeue": 2556,
      "Ġrepl": 2557,
      "eneric": 2558,
      "Ġmsg": 2559,
      "Ġever": 2560,
      "Ġetc": 2561,
      "Ġ},": 2562,
      "ĠSupport": 2563,
      "imal": 2564,
      "Ġ15": 2565,
      "Ġneg": 2566,
      "acefully": 2567,
      "usize": 2568,
      "iling": 2569,
      "query": 2570,
      "tex": 2571,
      "ĠLinked": 2572,
      "abet": 2573,
      "))))": 2574,
      "Ġunbounded": 2575,
      "ĠDijkstra": 2576,
      "Ġalloc": 2577,
      "ffix": 2578,
      "Ġcomput": 2579,
      "Ġlinked": 2580,
      "Ġfinds": 2581,
      "ower": 2582,
      "Ġgetter": 2583,
      "ĠRa": 2584,
      "ĠInfinity": 2585,
      "Ġinstall": 2586,
      "ĠIterate": 2587,
      "unchecked": 2588,
      "Ġparsing": 2589,
      "Ġcontain": 2590,
      "Ġcoll": 2591,
      "Ġimplementation": 2592,
      "Ġremove": 2593,
      "Ġsubstring": 2594,
      "Ġsubarray": 2595,
      "Ġsuccess": 2596,
      "Lock": 2597,
      "Ġprints": 2598,
      "Ġopen": 2599,
      "ĠComp": 2600,
      "Ġlookups": 2601,
      "Ġlowercase": 2602,
      "ĠTypeVar": 2603,
      "Ġbacktracking": 2604,
      "Ġflatt": 2605,
      "Ġguards": 2606,
      "weight": 2607,
      "Ġoverwrite": 2608,
      "partitionA": 2609,
      "partitionB": 2610,
      "ĠLRUCache": 2611,
      "Ġconnect": 2612,
      "bucket": 2613,
      "Ġsummarize": 2614,
      "ĠAvoids": 2615,
      "Ġbody": 2616,
      "Ġsubcommands": 2617,
      "Field": 2618,
      "Ġgracefully": 2619,
      "Ġexponential": 2620,
      "Ġalphabet": 2621,
      "connected": 2622,
      "Ġunsorted": 2623,
      "Suppress": 2624,
      "poll": 2625,
      "ĠSupports": 2626,
      "SuppressWarnings": 2627,
      "']": 2628,
      "(`": 2629,
      "+-]+": 2630,
      ",}": 2631,
      ".[": 2632,
      ".-]+": 2633,
      ".+-]+": 2634,
      "@[": 2635,
      "AL": 2636,
      "CD": 2637,
      "Cycle": 2638,
      "Data": 2639,
      "Handler": 2640,
      "Item": 2641,
      "Len": 2642,
      "Qu": 2643,
      "To": 2644,
      "Table": 2645,
      "UE": 2646,
      "VAL": 2647,
      "[\\": 2648,
      "\\.[": 2649,
      "]++;": 2650,
      "^[\\": 2651,
      "air": 2652,
      "cycle": 2653,
      "dition": 2654,
      "fo": 2655,
      "face": 2656,
      "hs": 2657,
      "ll": 2658,
      "ost": 2659,
      "ods": 2660,
      "pattern": 2661,
      "sens": 2662,
      "ynt": 2663,
      "Â²": 2664,
      "input": 2665,
      "Ġtrees": 2666,
      "level": 2667,
      "erio": 2668,
      "atis": 2669,
      "Ġclo": 2670,
      "Ġcircular": 2671,
      "Ġslic": 2672,
      "Ġsynt": 2673,
      "Ġsatis": 2674,
      "Ġrest": 2675,
      "Ġrequ": 2676,
      "ingly": 2677,
      "uration": 2678,
      "Ġwind": 2679,
      "Ġstate": 2680,
      "unct": 2681,
      "Ġvect": 2682,
      "Ġtopo": 2683,
      "Ġform": 2684,
      "ĠTrack": 2685,
      "umerate": 2686,
      "ĠSegmentTree": 2687,
      "Ġdomain": 2688,
      "Ġdynam": 2689,
      "railing": 2690,
      "Ġcondition": 2691,
      "Ġdelay": 2692,
      "ordingly": 2693,
      "Ġ['": 2694,
      "ĠAfter": 2695,
      "Ġ20": 2696,
      "Ġsets": 2697,
      "Ġconstant": 2698,
      "Ġassum": 2699,
      "Ġuplo": 2700,
      "achable": 2701,
      "ĠMove": 2702,
      "Ġknown": 2703,
      "Ġiterates": 2704,
      "pping": 2705,
      "Ġenfor": 2706,
      "Ġpartitions": 2707,
      "readth": 2708,
      "aterial": 2709,
      "ĠInitial": 2710,
      "Ġcurr": 2711,
      "Ġbounded": 2712,
      "Ġparameter": 2713,
      "Ġmaps": 2714,
      "Ġextend": 2715,
      "Ġstructured": 2716,
      "Ġmutex": 2717,
      "Ġaccordingly": 2718,
      "pose": 2719,
      "Ġplace": 2720,
      "igned": 2721,
      "ĊĠĠĠĠĠĠĠĠĠĠĠĠĠĠĠĠĠĠĠĠĠĠĠ": 2722,
      "100": 2723,
      "Ġfiles": 2724,
      "Ġloading": 2725,
      "timestamp": 2726,
      "Ġnormalize": 2727,
      "Ġtransformation": 2728,
      "Ġreads": 2729,
      "ĠVecDeque": 2730,
      "Ġlowerc": 2731,
      "grained": 2732,
      "soup": 2733,
      "Ġmodify": 2734,
      "Ġyield": 2735,
      "Ġremoves": 2736,
      "Ġrepresentative": 2737,
      "Ġmaintain": 2738,
      "Result": 2739,
      "Ġadvances": 2740,
      "Ġ${": 2741,
      "Ġapplies": 2742,
      "Ġmethods": 2743,
      "Ġimprove": 2744,
      "Ġreconstruct": 2745,
      "ĠCallable": 2746,
      "ĠNormalize": 2747,
      "Ġevery": 2748,
      "ĠRaises": 2749,
      ",}$": 2750,
      ".+-]+@[": 2751,
      "VALUE": 2752,
      "Ġsyntax": 2753,
      "Ġsatisf": 2754,
      "Ġrequire": 2755,
      "Ġwindow": 2756,
      "\"),": 2757,
      "BFS": 2758,
      "Del": 2759,
      "IL": 2760,
      "Json": 2761,
      "Lower": 2762,
      "OM": 2763,
      "Or": 2764,
      "Se": 2765,
      "Sort": 2766,
      "Such": 2767,
      "Tuple": 2768,
      "best": 2769,
      "bool": 2770,
      "car": 2771,
      "cast": 2772,
      "catch": 2773,
      "dd": 2774,
      "eren": 2775,
      "fill": 2776,
      "lines": 2777,
      "ml": 2778,
      "ns": 2779,
      "oise": 2780,
      "rc": 2781,
      "slow": 2782,
      "shi": 2783,
      "shar": 2784,
      "ven": 2785,
      "vict": 2786,
      "vide": 2787,
      "variant": 2788,
      "with": 2789,
      "xy": 2790,
      "Ġ...": 2791,
      "retries": 2792,
      "onacc": 2793,
      "Ġter": 2794,
      "Ġtort": 2795,
      "stdex": 2796,
      "Ġcrit": 2797,
      "Ġsmal": 2798,
      "utex": 2799,
      "Ġide": 2800,
      "Ġreal": 2801,
      "arg": 2802,
      "arse": 2803,
      "argument": 2804,
      "Ġinv": 2805,
      "ancing": 2806,
      "uristic": 2807,
      "Ġwait": 2808,
      "Ġmaterial": 2809,
      "Ġequivalent": 2810,
      "Ġstale": 2811,
      "Ġladder": 2812,
      "une": 2813,
      "Ġanch": 2814,
      "Ġtouch": 2815,
      "ĠTrans": 2816,
      "ply": 2817,
      "imize": 2818,
      "adata": 2819,
      "ilds": 2820,
      "licy": 2821,
      "ĠAggreg": 2822,
      "Ġsepar": 2823,
      "Ġpolicy": 2824,
      "ĠPush": 2825,
      "resh": 2826,
      "Ġchild": 2827,
      "abs": 2828,
      "Ġunder": 2829,
      "ivity": 2830,
      "cog": 2831,
      "Ġaccept": 2832,
      "Ġiterator": 2833,
      "Ġlogger": 2834,
      "Ġlogical": 2835,
      "ĠBu": 2836,
      "ĠAdds": 2837,
      "ĠaddEdge": 2838,
      "Ġparses": 2839,
      "Ġmatter": 2840,
      "Ġcollection": 2841,
      "ĠStart": 2842,
      "Ġkeeping": 2843,
      "Ġfinally": 2844,
      "Ġthreading": 2845,
      "pos": 2846,
      "matrix": 2847,
      "Ġrecency": 2848,
      "Ġ/**": 2849,
      "buffer": 2850,
      "bounce": 2851,
      "Ġproducing": 2852,
      "ediately": 2853,
      "umulate": 2854,
      "Ġdefaultdict": 2855,
      "Ġlinear": 2856,
      "<>(": 2857,
      "Ġaggregation": 2858,
      "Ġcomparator": 2859,
      "Ġevicts": 2860,
      "Ġduplicate": 2861,
      "Ġnormalization": 2862,
      "join": 2863,
      "Ġotherwise": 2864,
      "Ġtimes": 2865,
      "Ġprovided": 2866,
      "Ġstorage": 2867,
      "ĠRecursive": 2868,
      "ĠRecursively": 2869,
      "Ġappends": 2870,
      "Ġwalks": 2871,
      "Compute": 2872,
      "Response": 2873,
      "Ġmetadata": 2874,
      "iterator": 2875,
      "Ġrelax": 2876,
      "Ġlimits": 2877,
      "Ġexplores": 2878,
      "Ġabs": 2879,
      "Ġdeletion": 2880,
      "chedule": 2881,
      "ĠKeep": 2882,
      "Async": 2883,
      "ElementException": 2884,
      "Ġsquare": 2885,
      "Ġintegers": 2886,
      "Ġadditional": 2887,
      "sensitive": 2888,
      "Ġvector": 2889,
      "Ġdynamic": 2890,
      "Delay": 2891,
      "SuchElementException": 2892,
      "shift": 2893,
      "sharp": 2894,
      "xyz": 2895,
      "onacci": 2896,
      "Ġtortoise": 2897,
      "stdexcept": 2898,
      "Ġsmall": 2899,
      "\";": 2900,
      ".).": 2901,
      "AD": 2902,
      "ACT": 2903,
      "Case": 2904,
      "FACT": 2905,
      "GER": 2906,
      "Print": 2907,
      "Sum": 2908,
      "Tri": 2909,
      "Time": 2910,
      "Type": 2911,
      "_)": 2912,
      "aN": 2913,
      "cd": 2914,
      "cap": 2915,
      "code": 2916,
      "cop": 2917,
      "ccept": 2918,
      "directed": 2919,
      "empl": 2920,
      "high": 2921,
      "ible": 2922,
      "ipping": 2923,
      "lar": 2924,
      "mit": 2925,
      "np": 2926,
      "ous": 2927,
      "oose": 2928,
      "pag": 2929,
      "ql": 2930,
      "sues": 2931,
      "tices": 2932,
      "ved": 2933,
      "wh": 2934,
      "wrap": 2935,
      "work": 2936,
      "});": 2937,
      "ĠException": 2938,
      "request": 2939,
      "onal": 2940,
      "ongs": 2941,
      "stream": 2942,
      "stall": 2943,
      "ited": 2944,
      "ities": 2945,
      "Ġcreate": 2946,
      "Ġsite": 2947,
      "decess": 2948,
      "Ġnr": 2949,
      "ants": 2950,
      "anges": 2951,
      "Ġ{\"": 2952,
      "api": 2953,
      "aps": 2954,
      "sets": 2955,
      "rip": 2956,
      "Ġstill": 2957,
      "Ġstores": 2958,
      "Ġlongest": 2959,
      "uns": 2960,
      "Ġoc": 2961,
      "ently": 2962,
      "ave": 2963,
      "ulo": 2964,
      "ither": 2965,
      "Ġconfig": 2966,
      "Ġdeter": 2967,
      "cher": 2968,
      "change": 2969,
      "()->": 2970,
      "loads": 2971,
      "ubble": 2972,
      "Ġ[])": 2973,
      "InputStream": 2974,
      "Ġloc": 2975,
      "ĠIt": 2976,
      "Ġissues": 2977,
      "ĠAcc": 2978,
      "ĠPattern": 2979,
      "andom": 2980,
      "Ġ\",": 2981,
      "Ġexcept": 2982,
      "Ġunvisited": 2983,
      "Ġundirected": 2984,
      "ĠCl": 2985,
      "ĠCapacity": 2986,
      "ĠDis": 2987,
      "ĠNumber": 2988,
      "Ġalongs": 2989,
      "serial": 2990,
      "ĠUsing": 2991,
      "Ġfields": 2992,
      "Ġresulting": 2993,
      "ĠHel": 2994,
      "Ġshown": 2995,
      "Ġiterators": 2996,
      "Ġlogs": 2997,
      "logical": 2998,
      "Ġthrowing": 2999,
      "State": 3000,
      "ĠBoun": 3001,
      "Ġsorts": 3002,
      "Ġenv": 3003,
      "Ġpredecess": 3004,
      "Ġtotals": 3005,
      "ĠInstall": 3006,
      "ĠwordList": 3007,
      "strings": 3008,
      "Ġparity": 3009,
      "Ġparents": 3010,
      "Ġmatches": 3011,
      "Ġends": 3012,
      "ĠStream": 3013,
      "Ġwrapper": 3014,
      "Ġ100": 3015,
      "Ġtrie": 3016,
      "Ġtrims": 3017,
      "Ġcached": 3018,
      "Ġhigher": 3019,
      "ically": 3020,
      "Ġdefaults": 3021,
      "ĠTrim": 3022,
      "Ġdiscard": 3023,
      "ĠHashTable": 3024,
      "Ġsynchronization": 3025,
      "Ġdetect": 3026,
      "ĠCons": 3027,
      "Ġmeet": 3028,
      "like": 3029,
      "process": 3030,
      "ĠDetect": 3031,
      "TreeMap": 3032,
      "Ġflag": 3033,
      "Ġpreventing": 3034,
      "Ġvertex": 3035,
      "Ġvertices": 3036,
      "HashMap": 3037,
      "ween": 3038,
      "Ġfailure": 3039,
      "Ġmodulo": 3040,
      "Ġremoval": 3041,
      "Ġexceeded": 3042,
      "Ġreflect": 3043,
      "Ġincrement": 3044,
      "Ġincreasing": 3045,
      "Ġpreserves": 3046,
      "WithBack": 3047,
      "Ġscrape": 3048,
      "BinaryHeap": 3049,
      "float": 3050,
      "Ġoffer": 3051,
      "MAX": 3052,
      "Ġ`<=": 3053,
      "Ġbetween": 3054,
      "ĠProvide": 3055,
      "Ġspaces": 3056,
      "ĠThreadSafe": 3057,
      "Ġricher": 3058,
      "Ġreaches": 3059,
      "ĠCircularBuffer": 3060,
      "Ġimmediately": 3061,
      "Ġsubsequence": 3062,
      "Ġactive": 3063,
      "Ġsignal": 3064,
      "Ġconnectivity": 3065,
      "FACTOR": 3066,
      "npm": 3067,
      "Ġdetermin": 3068,
      "ĠAccumulate": 3069,
      "Ġalongside": 3070,
      "WithBackoff": 3071,
      "#,": 3072,
      "'),": 3073,
      ",'": 3074,
      ">&": 3075,
      "Graph": 3076,
      "GGER": 3077,
      "Lin": 3078,
      "Page": 3079,
      "Push": 3080,
      "RL": 3081,
      "ROR": 3082,
      "SU": 3083,
      "True": 3084,
      "ared": 3085,
      "ding": 3086,
      "fix": 3087,
      "gin": 3088,
      "hip": 3089,
      "ier": 3090,
      "ience": 3091,
      "kip": 3092,
      "lands": 3093,
      "rary": 3094,
      "script": 3095,
      "spe": 3096,
      "side": 3097,
      "tes": 3098,
      "twork": 3099,
      "ule": 3100,
      "ww": 3101,
      "xx": 3102,
      "}],": 3103,
      "Ġurl": 3104,
      "Ġts": 3105,
      "erform": 3106,
      "attempt": 3107,
      "Ġsup": 3108,
      "Ġpus": 3109,
      "Ġpay": 3110,
      "Ġfar": 3111,
      "den": 3112,
      "delay": 3113,
      "utions": 3114,
      "Ġrever": 3115,
      "Ġreuse": 3116,
      "anum": 3117,
      "anup": 3118,
      "anced": 3119,
      "Ġman": 3120,
      "Ġmath": 3121,
      "Ġeither": 3122,
      "icode": 3123,
      "undefined": 3124,
      "under": 3125,
      "unwrap": 3126,
      "ĠTwo": 3127,
      "ĠSkip": 3128,
      "plits": 3129,
      "Ġdc": 3130,
      "ading": 3131,
      "Ġ`[": 3132,
      "Ġnetwork": 3133,
      "Ġconcurren": 3134,
      "Ġdeserial": 3135,
      "ily": 3136,
      "Ġ++": 3137,
      "Ġgreet": 3138,
      "ĠgScore": 3139,
      "Ġgcd": 3140,
      "Ġring": 3141,
      "Ġrule": 3142,
      "Ġheuristic": 3143,
      "ĠFib": 3144,
      "ĠisEmpty": 3145,
      "ĠAccept": 3146,
      "Ġ200": 3147,
      "Ġsequence": 3148,
      "Ġpost": 3149,
      "Ġbegin": 3150,
      "ĠPar": 3151,
      "ĠPromise": 3152,
      "result": 3153,
      "email": 3154,
      "Ġchun": 3155,
      ")));": 3156,
      "Ġexact": 3157,
      "Ġunde": 3158,
      "Ġunchange": 3159,
      "Ġbugg": 3160,
      "++];": 3161,
      "ĠDP": 3162,
      "Ġnulls": 3163,
      "Ġproble": 3164,
      "Ġprogra": 3165,
      "Ġpropag": 3166,
      "ffff": 3167,
      "ĠMemo": 3168,
      "Ġaccessed": 3169,
      "Ġshal": 3170,
      "minates": 3171,
      "Ġstarted": 3172,
      "Ġcompare": 3173,
      "pped": 3174,
      "Ġenumerate": 3175,
      "ĠrangeSum": 3176,
      "cleaned": 3177,
      "ĠGeneric": 3178,
      "rence": 3179,
      "ĠStores": 3180,
      ">>[]": 3181,
      "ested": 3182,
      "ĠArrayDeque": 3183,
      "ody": 3184,
      "bounced": 3185,
      "ArrayList": 3186,
      "Ġsuit": 3187,
      "Ġsuffix": 3188,
      "lockwise": 3189,
      "Ġsift": 3190,
      "Ġweighted": 3191,
      "Ġexistence": 3192,
      "msg": 3193,
      "Ġfiltering": 3194,
      "aking": 3195,
      "Ġskipping": 3196,
      "deredDict": 3197,
      "Ġ90": 3198,
      "Ġequality": 3199,
      "ĠConcurrent": 3200,
      "ĠConfig": 3201,
      "Ġaccumulate": 3202,
      "Ġconstruction": 3203,
      "ĠDeque": 3204,
      "Ġ_,": 3205,
      "Ġfrontier": 3206,
      "Ġprevents": 3207,
      "Ġdifference": 3208,
      "ERROR": 3209,
      "ĠHttpRequest": 3210,
      "ĠHttpClient": 3211,
      "Ġrot": 3212,
      "ĠFixed": 3213,
      "Ġmaintaining": 3214,
      "Ġcosts": 3215,
      "buckets": 3216,
      "Ġspeed": 3217,
      "floor": 3218,
      "ĠChange": 3219,
      "MAIL": 3220,
      "Ġpasses": 3221,
      "Ġbetter": 3222,
      "Ġsentinels": 3223,
      "HttpClient": 3224,
      "Ġdiagonal": 3225,
      "ĠLOAD": 3226,
      "ĠLOGGER": 3227,
      "Ġcollecting": 3228,
      "Ġquickly": 3229,
      "Union": 3230,
      "Ġallocations": 3231,
      ".-]+\\.[": 3232,
      "Ġanchor": 3233,
      "ĠTransform": 3234,
      "Ġmatters": 3235,
      "Timeout": 3236,
      "Links": 3237,
      "anumeric": 3238,
      "Ġconcurrency": 3239,
      "ĠFibonacci": 3240,
      "Ġunchanged": 3241,
      "Ġbuggy": 3242,
      "Ġproblem": 3243,
      "\".": 3244,
      "75": 3245,
      ">::": 3246,
      "BST": 3247,
      "Body": 3248,
      "Do": 3249,
      "Down": 3250,
      "Email": 3251,
      "For": 3252,
      "ML": 3253,
      "Next": 3254,
      "Pattern": 3255,
      "Ro": 3256,
      "Sub": 3257,
      "Space": 3258,
      "[]):": 3259,
      "ags": 3260,
      "ci": 3261,
      "cmp": 3262,
      "false": 3263,
      "greet": 3264,
      "hit": 3265,
      "imple": 3266,
      "lru": 3267,
      "null": 3268,
      "over": 3269,
      "other": 3270,
      "prev": 3271,
      "pair": 3272,
      "su": 3273,
      "sub": 3274,
      "score": 3275,
      "tml": 3276,
      "{}": 3277,
      "ins": 3278,
      "inst": 3279,
      "inition": 3280,
      "rem": 3281,
      "regex": 3282,
      "reats": 3283,
      "reachable": 3284,
      "Ġtuple": 3285,
      "stors": 3286,
      "strip": 3287,
      "atur": 3288,
      "Ġcaller": 3289,
      "Ġsin": 3290,
      "Ġsplit": 3291,
      "Ġsplits": 3292,
      "Ġpa": 3293,
      "Ġpending": 3294,
      "Ġpalindrome": 3295,
      "alanced": 3296,
      "Ġnow": 3297,
      "Ġname": 3298,
      "Ġrecur": 3299,
      "Ġrecomp": 3300,
      "acing": 3301,
      "Ġborder": 3302,
      "Ġbubble": 3303,
      "Ġwant": 3304,
      "Ġmess": 3305,
      "rict": 3306,
      "ice": 3307,
      "ick": 3308,
      "Ġstable": 3309,
      "Ġstandard": 3310,
      "Ġ})": 3311,
      "ĠOk": 3312,
      "Ġance": 3313,
      "roup": 3314,
      "Ġvi": 3315,
      "Ġvari": 3316,
      "Ġvariant": 3317,
      "Ġopp": 3318,
      "Ġreturned": 3319,
      "ĠSafe": 3320,
      "imer": 3321,
      "Ġ16": 3322,
      "Ġdro": 3323,
      "Ġdire": 3324,
      "asks": 3325,
      "Ġnear": 3326,
      "Ġnever": 3327,
      "Ġneeds": 3328,
      "Ġ--": 3329,
      "raise": 3330,
      "rable": 3331,
      "Ġconver": 3332,
      "Ġconven": 3333,
      "Ġdecre": 3334,
      "Ġvals": 3335,
      "lookup": 3336,
      "Ġcoer": 3337,
      "Ġgroup": 3338,
      "Ġhave": 3339,
      "ĠItem": 3340,
      "ĠIOException": 3341,
      "typename": 3342,
      "Ġpopped": 3343,
      "ĠWord": 3344,
      "Ġbecom": 3345,
      "Ġresol": 3346,
      "Ġorg": 3347,
      "Ġordered": 3348,
      "olute": 3349,
      "Ġexec": 3350,
      "Ġasso": 3351,
      "ĠEMAIL": 3352,
      "ĠRemove": 3353,
      "ives": 3354,
      "Ġdefine": 3355,
      "Ġdefinition": 3356,
      "ĠURL": 3357,
      "Ġatt": 3358,
      "minRight": 3359,
      "Ġiteratively": 3360,
      "Ġlogic": 3361,
      "cessary": 3362,
      "Ġinserts": 3363,
      "Ġadding": 3364,
      "Ġaddress": 3365,
      "Ġpoints": 3366,
      "ĠRandom": 3367,
      "cluded": 3368,
      "ĠGCD": 3369,
      "Ġcolum": 3370,
      "plication": 3371,
      "Ġcallback": 3372,
      "Ġdepen": 3373,
      "Ġpossi": 3374,
      "Ġlevels": 3375,
      "Ġthreads": 3376,
      "Ġtrim": 3377,
      "buf": 3378,
      "bug": 3379,
      "build": 3380,
      "Ġindic": 3381,
      "Ġproduce": 3382,
      "Ġtracks": 3383,
      "Ġmembers": 3384,
      "Ġscan": 3385,
      "Ġscans": 3386,
      "Ġshorter": 3387,
      "Ġcomparing": 3388,
      "Ġevicted": 3389,
      "Ġrequested": 3390,
      "sirable": 3391,
      "ĠmaxLeftA": 3392,
      "Ġsynchronize": 3393,
      "Ġnormalized": 3394,
      "ĠConvert": 3395,
      "compile": 3396,
      "\":\"": 3397,
      "prod": 3398,
      "Ġamortized": 3399,
      "ious": 3400,
      "ĠHTML": 3401,
      "Ġpermutation": 3402,
      "Ġappropri": 3403,
      "Ġhashable": 3404,
      "cols": 3405,
      "points": 3406,
      "Ġverbose": 3407,
      "HashSet": 3408,
      "Ġfailures": 3409,
      "Ġoverwrites": 3410,
      "fullmatch": 3411,
      "Ġrob": 3412,
      "Ġrepresentation": 3413,
      "Compar": 3414,
      "ĠhasCycle": 3415,
      "Ġgeneral": 3416,
      "Ġconnection": 3417,
      "Ġpreserve": 3418,
      "Ġmeta": 3419,
      "abcd": 3420,
      "Ġadvancing": 3421,
      "ĠIllegalState": 3422,
      "Ġmarking": 3423,
      "Ġspecific": 3424,
      "Ġsumming": 3425,
      "Ġoffset": 3426,
      "dog": 3427,
      "Hello": 3428,
      "Ġvisitation": 3429,
      "ĠMinHeap": 3430,
      "createRead": 3431,
      "limits": 3432,
      "ways": 3433,
      "Ġserialize": 3434,
      "Ġevaluation": 3435,
      "Ġlike": 3436,
      "Ġcombined": 3437,
      "Ġguaranteed": 3438,
      "osite": 3439,
      "Ġsubarrays": 3440,
      "weighted": 3441,
      "Length": 3442,
      "Query": 3443,
      "Ġslices": 3444,
      "Ġrestore": 3445,
      "Ġtopological": 3446,
      "Ġassumes": 3447,
      "Search": 3448,
      "Ġident": 3449,
      "argv": 3450,
      "ĠAggregate": 3451,
      "Ġacceptable": 3452,
      "ĠBuilds": 3453,
      "copy": 3454,
      "largest": 3455,
      "while": 3456,
      "unsigned": 3457,
      "ĠHello": 3458,
      "ĠBounded": 3459,
      "Ġpredecessors": 3460,
      "processing": 3461,
      "ĠscrapeLinks": 3462,
      "ĠProvides": 3463,
      "underflow": 3464,
      "Ġundesirable": 3465,
      "Ġprogramming": 3466,
      "Format": 3467,
      "Root": 3468,
      "ciative": 3469,
      "Ġmessages": 3470,
      "Ġancestors": 3471,
      "Ġopposite": 3472,
      "Ġconvenience": 3473,
      "Ġassociative": 3474,
      "minRightA": 3475,
      "ĠRandomize": 3476,
      "Ġpossible": 3477,
      "Ġmembership": 3478,
      "ĠIllegalStateException": 3479,
      "createReadStream": 3480,
      "!)": 3481,
      "(*": 3482,
      ":])": 3483,
      "==": 3484,
      "At": 3485,
      "Add": 3486,
      "Big": 3487,
      "Function": 3488,
      "First": 3489,
      "KB": 3490,
      "LRU": 3491,
      "Linked": 3492,
      "Mutex": 3493,
      "RC": 3494,
      "RI": 3495,
      "SE": 3496,
      "URI": 3497,
      "Water": 3498,
      "['": 3499,
      "]],": 3500,
      "]`.": 3501,
      "`).": 3502,
      "aut": 3503,
      "aust": 3504,
      "await": 3505,
      "ausing": 3506,
      "bin": 3507,
      "bit": 3508,
      "bind": 3509,
      "big": 3510,
      "block": 3511,
      "cell": 3512,
      "dle": 3513,
      "dot": 3514,
      "gith": 3515,
      "hare": 3516,
      "hys": 3517,
      "haust": 3518,
      "jsoup": 3519,
      "lot": 3520,
      "nip": 3521,
      "oin": 3522,
      "oint": 3523,
      "output": 3524,
      "oss": 3525,
      "pens": 3526,
      "trailing": 3527,
      "timer": 3528,
      "vity": 3529,
      "yle": 3530,
      "}\"": 3531,
      "âī": 3532,
      "ĊĊĠĠĠĠĠĠĠĠĠĠĠ": 3533,
      "Ġâī": 3534,
      "ĠĠĠĠĠ": 3535,
      "ĠĠĠĠĠĠĠĠĠĠĠ": 3536,
      "inf": 3537,
      "iner": 3538,
      "ination": 3539,
      "indeg": 3540,
      "only": 3541,
      "Ġtaller": 3542,
      "orm": 3543,
      "orld": 3544,
      "leep": 3545,
      "erver": 3546,
      "atives": 3547,
      "Ġcal": 3548,
      "Ġcell": 3549,
      "Ġcausing": 3550,
      "Ġsile": 3551,
      "Ġsche": 3552,
      "Ġsizes": 3553,
      "Ġsnip": 3554,
      "Ġserver": 3555,
      "Ġpunct": 3556,
      "Ġfailed": 3557,
      "alph": 3558,
      "dev": 3559,
      "Ġnxt": 3560,
      "Ġret": 3561,
      "Ġreorder": 3562,
      "Ġreco": 3563,
      "Ġresets": 3564,
      "acts": 3565,
      "Ġinfo": 3566,
      "env": 3567,
      "ana": 3568,
      "Ġ{'": 3569,
      "Ġbl": 3570,
      "Ġbr": 3571,
      "Ġbig": 3572,
      "Ġbreadth": 3573,
      "Ġwrites": 3574,
      "Ġmo": 3575,
      "Ġthere": 3576,
      "Ġ()": 3577,
      "Ġemit": 3578,
      "Ġstop": 3579,
      "Ġstrict": 3580,
      "Ġlib": 3581,
      "Ġlaps": 3582,
      "ĠOpens": 3583,
      "Ġok": 3584,
      "Ġforms": 3585,
      "ents": 3586,
      "ention": 3587,
      "isArray": 3588,
      "eline": 3589,
      "aving": 3590,
      "ĠSort": 3591,
      "ĠSimple": 3592,
      "izer": 3593,
      "Ġ120": 3594,
      "Ġthose": 3595,
      "async": 3596,
      "Ġless": 3597,
      "Ġleading": 3598,
      "Ġdeg": 3599,
      "Ġdest": 3600,
      "()).": 3601,
      "()`.": 3602,
      "load": 3603,
      "Ġcover": 3604,
      "Ġcommand": 3605,
      "Ġ<-": 3606,
      "ackson": 3607,
      "Ġ[(": 3608,
      "Ġrhs": 3609,
      "ĠFilter": 3610,
      "Ġjoin": 3611,
      "Ġisinst": 3612,
      "ĠAt": 3613,
      "ĠAlice": 3614,
      "Ġ24": 3615,
      "Reject": 3616,
      "verbose": 3617,
      "tered": 3618,
      "ĠLongest": 3619,
      "ĠPagin": 3620,
      "ĠPerform": 3621,
      "vals": 3622,
      "values": 3623,
      "ĠnewData": 3624,
      "Ġchaining": 3625,
      "Ġadds": 3626,
      "curr": 3627,
      "Ġexhaust": 3628,
      "Ġunreachable": 3629,
      "Ġunweighted": 3630,
      "///": 3631,
      "rightMax": 3632,
      "ĠCorrect": 3633,
      "Ġminimize": 3634,
      "peration": 3635,
      "ĠDo": 3636,
      "ĠDSU": 3637,
      "pet": 3638,
      "Ġusers": 3639,
      "open": 3640,
      "Ġ30": 3641,
      "Ġorders": 3642,
      "Ġkeyed": 3643,
      "heapq": 3644,
      "Ġbyte": 3645,
      "coins": 3646,
      "ĠHe": 3647,
      "ruit": 3648,
      "Ġclamp": 3649,
      "Ġshap": 3650,
      "Ġshared": 3651,
      "[]],": 3652,
      "Ġprior": 3653,
      "Ġ'/": 3654,
      "logging": 3655,
      "trib": 3656,
      "Start": 3657,
      "Ġsorting": 3658,
      "Ġstats": 3659,
      "Ġprecomp": 3660,
      "Ġpreprocessing": 3661,
      "Ġtypename": 3662,
      "leftMax": 3663,
      "numbers": 3664,
      "iron": 3665,
      "Ġlengths": 3666,
      "popleft": 3667,
      "Ġoperators": 3668,
      "Ġoperands": 3669,
      "constant": 3670,
      "ĠInsert": 3671,
      "Ġelif": 3672,
      "ified": 3673,
      "ĠstreamFile": 3674,
      "Ġparser": 3675,
      "ecut": 3676,
      "ipeline": 3677,
      "ĠStandard": 3678,
      "ternal": 3679,
      "Ġmapping": 3680,
      "Level": 3681,
      ">>>>": 3682,
      "Ġsolutions": 3683,
      "Ġimplemented": 3684,
      "actorial": 3685,
      "Ġindexing": 3686,
      "Ġmerges": 3687,
      "matches": 3688,
      "Ġrecently": 3689,
      "Ġentire": 3690,
      "creasing": 3691,
      "price": 3692,
      "Ġtranspose": 3693,
      "Ġaggregates": 3694,
      "Ġscal": 3695,
      "Ġworld": 3696,
      "Ġbased": 3697,
      "Ġ64": 3698,
      "ĠCoarse": 3699,
      "Ġloops": 3700,
      "Ġproperty": 3701,
      "ĠUnicode": 3702,
      "ĠHashMap": 3703,
      "Ġcleanup": 3704,
      "Ġprocesses": 3705,
      "Ġdequeued": 3706,
      "Ġreadability": 3707,
      "Ġbrevity": 3708,
      "compare": 3709,
      "TreeNode": 3710,
      "Ġgeneric": 3711,
      "Ġdictionaries": 3712,
      "collect": 3713,
      "Ġskips": 3714,
      "erialize": 3715,
      "Ġconcurrently": 3716,
      "ĠHttpResponse": 3717,
      "Ġreferen": 3718,
      "Ġrefresh": 3719,
      "ĠdfsHel": 3720,
      "Ġgenerator": 3721,
      "Ġlazily": 3722,
      "Ġimposs": 3723,
      "Ġmiddle": 3724,
      "static": 3725,
      "Ġtimestamps": 3726,
      "Ġrelative": 3727,
      "Ġbuilding": 3728,
      "Ġmatching": 3729,
      "Ġtrapped": 3730,
      "Ġlocking": 3731,
      "ĠChoose": 3732,
      "Ġboundaries": 3733,
      "hashCode": 3734,
      "Ġapply": 3735,
      "ĠquickSort": 3736,
      "Ġris": 3737,
      "Ġformats": 3738,
      "StackException": 3739,
      "}`);": 3740,
      "Ġpaginate": 3741,
      "ĠSwapping": 3742,
      "VecDeque": 3743,
      "[:]": 3744,
      "limited": 3745,
      "ĠOrderedDict": 3746,
      "Ġreplaces": 3747,
      "Ġnegation": 3748,
      "Ġnegatives": 3749,
      "Ġcollap": 3750,
      "ĠCompute": 3751,
      "Ġflatten": 3752,
      "Ġflattens": 3753,
      "Ġclose": 3754,
      "Ġenforce": 3755,
      "ĠInitialize": 3756,
      "Ġlowercasing": 3757,
      "Ġmodifying": 3758,
      "Ġsatisfy": 3759,
      "Ġrequirements": 3760,
      "Ġcritical": 3761,
      "Ġinvok": 3762,
      "Ġmaterializing": 3763,
      "Ġseparate": 3764,
      "Ġabsolute": 3765,
      "Trim": 3766,
      "emplate": 3767,
      "Ġoccurren": 3768,
      "ĠDisjoint": 3769,
      "Ġenviron": 3770,
      "ĠConsider": 3771,
      "Ġincrementally": 3772,
      "specific": 3773,
      "ĠAccepts": 3774,
      "Double": 3775,
      "Ġsince": 3776,
      "Ġpairs": 3777,
      "Ġdrop": 3778,
      "Ġdirect": 3779,
      "Ġcolumns": 3780,
      "Comparator": 3781,
      "github": 3782,
      "hysical": 3783,
      "Ġâī¤": 3784,
      "Ġsnippet": 3785,
      "Ġpunctuation": 3786,
      "alphanumeric": 3787,
      "Ġrecover": 3788,
      "Ġisinstance": 3789,
      "ĠdfsHelper": 3790,
      "!.": 3791,
      "'));": 3792,
      ")],": 3793,
      "AR": 3794,
      "Alice": 3795,
      "By": 3796,
      "BTreeMap": 3797,
      "Eq": 3798,
      "EST": 3799,
      "FC": 3800,
      "FO": 3801,
      "Fix": 3802,
      "Get": 3803,
      "IN": 3804,
      "Iter": 3805,
      "IOException": 3806,
      "IFO": 3807,
      "LE": 3808,
      "Mill": 3809,
      "Memo": 3810,
      "No": 3811,
      "NaN": 3812,
      "Part": 3813,
      "Prev": 3814,
      "Us": 3815,
      "[-": 3816,
      "])))": 3817,
      "`),": 3818,
      "ah": 3819,
      "ares": 3820,
      "ba": 3821,
      "bs": 3822,
      "bac": 3823,
      "bidirectional": 3824,
      "bca": 3825,
      "cs": 3826,
      "cer": 3827,
      "cion": 3828,
      "cul": 3829,
      "cab": 3830,
      "cba": 3831,
      "dates": 3832,
      "eper": 3833,
      "evict": 3834,
      "fan": 3835,
      "gular": 3836,
      "hot": 3837,
      "iot": 3838,
      "late": 3839,
      "last": 3840,
      "lhs": 3841,
      "lways": 3842,
      "math": 3843,
      "message": 3844,
      "our": 3845,
      "pre": 3846,
      "pring": 3847,
      "sion": 3848,
      "sures": 3849,
      "txt": 3850,
      "tom": 3851,
      "tok": 3852,
      "ucl": 3853,
      "Â·": 3854,
      "Ġ**": 3855,
      "iny": 3856,
      "Ġte": 3857,
      "Ġtext": 3858,
      "Ġtrailing": 3859,
      "Ġtasks": 3860,
      "Ġtiny": 3861,
      "org": 3862,
      "orout": 3863,
      "style": 3864,
      "lev": 3865,
      "erse": 3866,
      "erge": 3867,
      "itter": 3868,
      "hed": 3869,
      "Ġcre": 3870,
      "Ġclockwise": 3871,
      "Ġpages": 3872,
      "Ġpresent": 3873,
      "Ġpipeline": 3874,
      "Ġfil": 3875,
      "Ġfol": 3876,
      "Ġfmt": 3877,
      "Ġfunct": 3878,
      "Ġfiner": 3879,
      "alle": 3880,
      "alform": 3881,
      "debounced": 3882,
      "decreasing": 3883,
      "Ġnth": 3884,
      "Ġnatur": 3885,
      "arity": 3886,
      "arithm": 3887,
      "arli": 3888,
      "acb": 3889,
      "aced": 3890,
      "Ġinfinity": 3891,
      "any": 3892,
      "uring": 3893,
      "Ġblock": 3894,
      "Ġbfs": 3895,
      "Ġwall": 3896,
      "Ġmost": 3897,
      "Ġmalform": 3898,
      "Ġthey": 3899,
      "Ġtheir": 3900,
      "Ġ('": 3901,
      "Ġ(...": 3902,
      "Ġearly": 3903,
      "Ġearli": 3904,
      "Ġlack": 3905,
      "Ġlru": 3906,
      "Ġvs": 3907,
      "Ġvar": 3908,
      "Ġtoward": 3909,
      "ĠTail": 3910,
      "ĠTemplate": 3911,
      "ots": 3912,
      "otate": 3913,
      "ottom": 3914,
      "ĠStri": 3915,
      "plies": 3916,
      "imist": 3917,
      "Ġdr": 3918,
      "Ġdirection": 3919,
      "Ġ`{": 3920,
      "Ġnei": 3921,
      "Ġnecessary": 3922,
      "Ġleaves": 3923,
      "Ġints": 3924,
      "Ġconn": 3925,
      "Ġconcat": 3926,
      "Ġconcer": 3927,
      "Ġdec": 3928,
      "Ġdeeper": 3929,
      "ilt": 3930,
      "chan": 3931,
      "()];": 3932,
      "lose": 3933,
      "locks": 3934,
      "Common": 3935,
      "Ġgreate": 3936,
      "Ġgorout": 3937,
      "Ġarg": 3938,
      "Ġarithm": 3939,
      "Ġarbit": 3940,
      "Ġjust": 3941,
      "Ġjitter": 3942,
      "Ġonto": 3943,
      "ĠisValid": 3944,
      "ĠApp": 3945,
      "ĠAlways": 3946,
      "Ġ26": 3947,
      "keys": 3948,
      "quen": 3949,
      "Ġconstants": 3950,
      "Ġpoll": 3951,
      "ĠPop": 3952,
      "ultiple": 3953,
      "],[]],": 3954,
      "Ġtrunc": 3955,
      "Ġexample": 3956,
      "Ġexcluded": 3957,
      "ĠChe": 3958,
      "ĠCache": 3959,
      "perCase": 3960,
      "ĠDOM": 3961,
      "ĠEmpty": 3962,
      "ĠEvict": 3963,
      "ĠEucl": 3964,
      "ĠRegex": 3965,
      "ptions": 3966,
      "Ġprocessed": 3967,
      "ffers": 3968,
      "riting": 3969,
      "Ġ36": 3970,
      "maxEdge": 3971,
      "maxRetries": 3972,
      "maxChar": 3973,
      "cost": 3974,
      "etic": 3975,
      "etWithBackoff": 3976,
      "Ġclarity": 3977,
      "Ġshar": 3978,
      "[]{": 3979,
      "minEdge": 3980,
      "minChar": 3981,
      "Ġfunctions": 3982,
      "ounts": 3983,
      "Ġiterations": 3984,
      "nodes": 3985,
      "Ġlogarithm": 3986,
      "Ġ'#": 3987,
      "Ġ'*": 3988,
      "Ġ'-": 3989,
      "ĠBreadth": 3990,
      "Ġrecursing": 3991,
      "ĠfindLo": 3992,
      "aches": 3993,
      "Ġraises": 3994,
      "ĠgetMin": 3995,
      "Ġupper": 3996,
      "Ġupfront": 3997,
      "inally": 3998,
      "Ġoutgo": 3999,
      "duct": 4000,
      "ĠRFC": 4001,
      "omains": 4002,
      "omuto": 4003,
      "ĠGetWithBackoff": 4004,
      "started": 4005,
      "Ġending": 4006,
      "ĠStable": 4007,
      "Ġbacked": 4008,
      "letter": 4009,
      "egative": 4010,
      "gging": 4011,
      "ensive": 4012,
      "Ġweb": 4013,
      "Ġwraps": 4014,
      "Ġwrapped": 4015,
      "Errorf": 4016,
      "Ġ??": 4017,
      "cheerio": 4018,
      "Ġdoub": 4019,
      "Ġproduces": 4020,
      "lists": 4021,
      "safety": 4022,
      "Ġmismatch": 4023,
      "Ġsimp": 4024,
      "ĠTrims": 4025,
      "initely": 4026,
      "ĠValidates": 4027,
      "tempts": 4028,
      "template": 4029,
      "parser": 4030,
      "atching": 4031,
      "ĠbaseDelay": 4032,
      "Ġfilters": 4033,
      "--)": 4034,
      "--];": 4035,
      "goal": 4036,
      "sift": 4037,
      "Ġdiscar": 4038,
      "wordList": 4039,
      "Ġswapping": 4040,
      "Ġhelp": 4041,
      "ĠdeleteRoot": 4042,
      "product": 4043,
      "Ġamounts": 4044,
      "ĠDebounce": 4045,
      "Ġfloating": 4046,
      "Ġexpensive": 4047,
      "Hashable": 4048,
      "tails": 4049,
      "Ġfails": 4050,
      "Ġgenerates": 4051,
      "ysql": 4052,
      "Ġretrieve": 4053,
      "Ġrejects": 4054,
      "Ġindegree": 4055,
      "Ġ[{\"": 4056,
      "Ġextracts": 4057,
      "ools": 4058,
      "Ġtoken": 4059,
      "local": 4060,
      "ĠchunkSize": 4061,
      "Ġscraper": 4062,
      "Ġscraping": 4063,
      "Cont": 4064,
      "Concurrent": 4065,
      "Ġlimit": 4066,
      "Ġinterval": 4067,
      "Ġcounter": 4068,
      "Validator": 4069,
      "Ġallowed": 4070,
      "parseInt": 4071,
      "Ġabove": 4072,
      "lowercase": 4073,
      "Ġchecking": 4074,
      "LogRecord": 4075,
      "Ġmethod": 4076,
      "ĠBinaryHeap": 4077,
      "cheduler": 4078,
      "Ġmemoize": 4079,
      "Ġmemoization": 4080,
      "ĠKeys": 4081,
      "Ġreached": 4082,
      "ĠNoSuchElementException": 4083,
      "ĠRespect": 4084,
      "Ġdivisor": 4085,
      "Ġdivision": 4086,
      "Ġgrowth": 4087,
      "UpperCase": 4088,
      "Ġsurpri": 4089,
      "Ġsurface": 4090,
      "ĠLinkedList": 4091,
      "Ġcomputing": 4092,
      "Handlers": 4093,
      "ToLower": 4094,
      "Ġconditions": 4095,
      "Ġupload": 4096,
      "Ġuploads": 4097,
      "Ġlowercases": 4098,
      "Ġterms": 4099,
      "ĠStarting": 4100,
      "Printer": 4101,
      "requests": 4102,
      "ĠClone": 4103,
      "Ġdiscarding": 4104,
      "Ġdetermines": 4105,
      "PushBack": 4106,
      "Ġsupply": 4107,
      "Ġpushes": 4108,
      "Ġpayloads": 4109,
      "dency": 4110,
      "Ġpostfix": 4111,
      "ĠbeginWord": 4112,
      "Ġchunks": 4113,
      "Ġshallow": 4114,
      "Ġsuitable": 4115,
      "Ġrotation": 4116,
      "UnionFind": 4117,
      "Ġcallers": 4118,
      "ĠpendingReject": 4119,
      "Ġbecomes": 4120,
      "Ġdependency": 4121,
      "Ġappropriate": 4122,
      "Ġrobots": 4123,
      "Ġcalcul": 4124,
      "Ġbran": 4125,
      "ĠSorting": 4126,
      "Ġdegrees": 4127,
      "ĠDoes": 4128,
      "Ġreferences": 4129,
      "Ġclosest": 4130,
      "TrimSpace": 4131,
      "ARN": 4132,
      "NoSuchElementException": 4133,
      "ahn": 4134,
      "fanity": 4135,
      "iota": 4136,
      "tokens": 4137,
      "Ġfiltered": 4138,
      "Ġfunctools": 4139,
      "Ġmalformed": 4140,
      "Ġearlier": 4141,
      "Ġconcaten": 4142,
      "Ġgreatest": 4143,
      "Ġarithmetic": 4144,
      "ĠAppend": 4145,
      "ĠfindLocked": 4146,
      "Ġoutgoing": 4147,
      "Ġdiscards": 4148,
      "!\"": 4149,
      "!;": 4150,
      "\"}": 4151,
      "\"},": 4152,
      "\"}]": 4153,
      "\"^[\\": 4154,
      "#[": 4155,
      "').": 4156,
      "'],[": 4157,
      "(/": 4158,
      ")+": 4159,
      ")`.": 4160,
      "+/": 4161,
      "+\",": 4162,
      ",#,": 4163,
      "11": 4164,
      "54": 4165,
      "80": 4166,
      ":]": 4167,
      ":[]": 4168,
      "<?": 4169,
      "AT": 4170,
      "All": 4171,
      "Abs": 4172,
      "Boun": 4173,
      "Ch": 4174,
      "Duration": 4175,
      "EN": 4176,
      "From": 4177,
      "False": 4178,
      "Func": 4179,
      "Generic": 4180,
      "GCD": 4181,
      "HT": 4182,
      "IS": 4183,
      "LD": 4184,
      "Ms": 4185,
      "Mar": 4186,
      "Must": 4187,
      "MIN": 4188,
      "Nested": 4189,
      "Obj": 4190,
      "Operation": 4191,
      "PQ": 4192,
      "SV": 4193,
      "Su": 4194,
      "Summ": 4195,
      "Total": 4196,
      "[\"": 4197,
      "[(": 4198,
      "[[": 4199,
      "[..": 4200,
      "]).": 4201,
      "]])": 4202,
      "`?": 4203,
      "ber": 4204,
      "balanced": 4205,
      "cate": 4206,
      "call": 4207,
      "csharp": 4208,
      "dis": 4209,
      "done": 4210,
      "direction": 4211,
      "domains": 4212,
      "ection": 4213,
      "fri": 4214,
      "ful": 4215,
      "fruit": 4216,
      "finally": 4217,
      "gn": 4218,
      "gScore": 4219,
      "hatt": 4220,
      "html": 4221,
      "ie": 4222,
      "iana": 4223,
      "jackson": 4224,
      "jection": 4225,
      "ky": 4226,
      "known": 4227,
      "lt": 4228,
      "lu": 4229,
      "lling": 4230,
      "ller": 4231,
      "linked": 4232,
      "lmn": 4233,
      "ma": 4234,
      "mb": 4235,
      "mage": 4236,
      "mew": 4237,
      "ood": 4238,
      "obj": 4239,
      "pivot": 4240,
      "pref": 4241,
      "qrst": 4242,
      "rr": 4243,
      "rant": 4244,
      "send": 4245,
      "sWith": 4246,
      "sValid": 4247,
      "src": 4248,
      "ting": 4249,
      "uv": 4250,
      "ual": 4251,
      "uing": 4252,
      "uge": 4253,
      "visit": 4254,
      "vance": 4255,
      "writes": 4256,
      "wxyz": 4257,
      "})": 4258,
      "Â±": 4259,
      "ĠÂ±": 4260,
      "ĠĠĠĠĠĠ": 4261,
      "info": 4262,
      "rever": 4263,
      "reater": 4264,
      "refs": 4265,
      "rehen": 4266,
      "onic": 4267,
      "onot": 4268,
      "Ġtest": 4269,
      "Ġtask": 4270,
      "Ġtaking": 4271,
      "Ġtags": 4272,
      "Ġtreats": 4273,
      "oring": 4274,
      "les": 4275,
      "less": 4276,
      "erive": 4277,
      "erase": 4278,
      "eria": 4279,
      "Ġcsharp": 4280,
      "Ġsim": 4281,
      "Ġsco": 4282,
      "Ġsrc": 4283,
      "Ġschedule": 4284,
      "Ġsaving": 4285,
      "Ġport": 4286,
      "Ġpair": 4287,
      "Ġfre": 4288,
      "Ġfold": 4289,
      "alnum": 4290,
      "descript": 4291,
      "ution": 4292,
      "utable": 4293,
      "utdown": 4294,
      "Ġimpl": 4295,
      "Ġign": 4296,
      "Ġrect": 4297,
      "Ġreport": 4298,
      "Ġrehash": 4299,
      "Ġreachable": 4300,
      "Ġrevisit": 4301,
      "mpt": 4302,
      "mpot": 4303,
      "arn": 4304,
      "ards": 4305,
      "Ġinf": 4306,
      "Ġincl": 4307,
      "Ġinclude": 4308,
      "ane": 4309,
      "anging": 4310,
      "angular": 4311,
      "anhatt": 4312,
      "Ġbottom": 4313,
      "Ġblocks": 4314,
      "Ġwrite": 4315,
      "Ġwarn": 4316,
      "apt": 4317,
      "apid": 4318,
      "Ġmight": 4319,
      "Ġ(((": 4320,
      "Ġ(_,": 4321,
      "river": 4322,
      "rices": 4323,
      "rids": 4324,
      "rics": 4325,
      "Ġelev": 4326,
      "Ġstability": 4327,
      "Ġland": 4328,
      "Ġlay": 4329,
      "unter": 4330,
      "Ġans": 4331,
      "Ġanother": 4332,
      "roller": 4333,
      "Ġopt": 4334,
      "Ġocc": 4335,
      "Ġodd": 4336,
      "Ġtool": 4337,
      "Execut": 4338,
      "ĠTResult": 4339,
      "entrant": 4340,
      "iss": 4341,
      "isInteger": 4342,
      "isions": 4343,
      "isNaN": 4344,
      "isalnum": 4345,
      "istent": 4346,
      "ĠSub": 4347,
      "ĠSwitch": 4348,
      "places": 4349,
      "ima": 4350,
      "imes": 4351,
      "Ġdive": 4352,
      "Ġduring": 4353,
      "Ġderive": 4354,
      "adane": 4355,
      "ghijk": 4356,
      "integer": 4357,
      "ramew": 4358,
      "Internal": 4359,
      "usive": 4360,
      "Ġconvert": 4361,
      "Ġdes": 4362,
      "Ġdegra": 4363,
      "Ġderef": 4364,
      "Ġdecode": 4365,
      "Ġdescript": 4366,
      "Ġcomplex": 4367,
      "Ġcoarse": 4368,
      "Ġgscore": 4369,
      "Ġgrids": 4370,
      "Ġ[-": 4371,
      "Ġ[('": 4372,
      "Ġhit": 4373,
      "Ġhare": 4374,
      "Ġhuge": 4375,
      "Ġhrefs": 4376,
      "ĠFile": 4377,
      "ĠFetch": 4378,
      "ĠFactorial": 4379,
      "ĠFIFO": 4380,
      "ĠINFO": 4381,
      "ĠIsValid": 4382,
      "Ġislands": 4383,
      "Retry": 4384,
      "Ġsecond": 4385,
      "test": 4386,
      "tems": 4387,
      "ends": 4388,
      "endly": 4389,
      "ĠWH": 4390,
      "ĠWorld": 4391,
      "ĠLomuto": 4392,
      "ĠPredicate": 4393,
      "Ġrespon": 4394,
      "Ġresizing": 4395,
      "ainer": 4396,
      "Ġboard": 4397,
      "Ġcho": 4398,
      "Ġchanging": 4399,
      "ĠJson": 4400,
      "Ġ\"-": 4401,
      "Ġexit": 4402,
      "Ġuni": 4403,
      "Ġbuffe": 4404,
      "Ġbuilt": 4405,
      "Ġcodes": 4406,
      "ĠCli": 4407,
      "ĠCaller": 4408,
      "ĠCSV": 4409,
      "ĠDep": 4410,
      "ĠDec": 4411,
      "ĠDuration": 4412,
      "ĠEqual": 4413,
      "ĠEdge": 4414,
      "ĠEarly": 4415,
      "ĠErr": 4416,
      "Ġusage": 4417,
      "ĠReverse": 4418,
      "ĠReplaces": 4419,
      "ĠNaN": 4420,
      "ĠNested": 4421,
      "Ġaltern": 4422,
      "Ġalso": 4423,
      "opo": 4424,
      "opqrst": 4425,
      "Ġprofanity": 4426,
      "fff": 4427,
      "ĠvalueField": 4428,
      "ĠkeyField": 4429,
      "Ġbytes": 4430,
      "])`": 4431,
      "]));": 4432,
      "conds": 4433,
      "concurrent": 4434,
      "ĠMutex": 4435,
      "ĠMultiple": 4436,
      "Ġheaps": 4437,
      "Ġattrib": 4438,
      "Ġclon": 4439,
      "[]>": 4440,
      "Ġiterating": 4441,
      "Ġcomprehen": 4442,
      "defghijk": 4443,
      "logFile": 4444,
      "Ġpushing": 4445,
      "Stats": 4446,
      "ĠBTreeMap": 4447,
      "ĠAdvance": 4448,
      "Ġenque": 4449,
      "Ġvalidity": 4450,
      "Ġoperator": 4451,
      "exception": 4452,
      "explicit": 4453,
      "\"));": 4454,
      "ĠRotate": 4455,
      "idean": 4456,
      "ĠIterator": 4457,
      "iful": 4458,
      "..]);": 4459,
      "startNode": 4460,
      "Ġmatrices": 4461,
      "Ġendpoint": 4462,
      "ĠStack": 4463,
      "Ġcalling": 4464,
      "mutations": 4465,
      "mutex": 4466,
      "Ġsupports": 4467,
      "Ġextrem": 4468,
      ">>;": 4469,
      "Ġstructures": 4470,
      "ĠindexOf": 4471,
      "Ġmerging": 4472,
      "post": 4473,
      "Ġplain": 4474,
      "Ġplaces": 4475,
      "ĊĠĠĠĠĠĠĠĠĠĠĠĠĠĠĠĠĠĠĠĠĠĠĠĠĠĠĠ": 4476,
      "Ġtrimming": 4477,
      "ĠArrays": 4478,
      "ĠArrayQueue": 4479,
      "Ġcaches": 4480,
      "Ġdicts": 4481,
      "tolower": 4482,
      "toUpperCase": 4483,
      "Ġ[](": 4484,
      "Ġ[]*": 4485,
      "ĠsetTimeout": 4486,
      "Ġmiss": 4487,
      "Ġmisses": 4488,
      "Ġmisuse": 4489,
      "Ġcancell": 4490,
      "param": 4491,
      "Ġprevious": 4492,
      "ĠCount": 4493,
      "ĠKahn": 4494,
      "Mapping": 4495,
      "lects": 4496,
      "Ġregexp": 4497,
      "Ġdiffer": 4498,
      "derive": 4499,
      "Ġpatterns": 4500,
      "ĠHashSet": 4501,
      "extend": 4502,
      "Ġclear": 4503,
      "000": 4504,
      "Detect": 4505,
      "wordSet": 4506,
      "ĠupdateInternal": 4507,
      "Ġaccumulating": 4508,
      "Ġmean": 4509,
      "lib": 4510,
      "progra": 4511,
      "gory": 4512,
      "=[\"": 4513,
      "Ġflood": 4514,
      "Ġhashing": 4515,
      "Ġpositions": 4516,
      "Ġmarks": 4517,
      "Ġtraverse": 4518,
      "Ġexpand": 4519,
      "ERE": 4520,
      "Ġcopies": 4521,
      "typeof": 4522,
      "totalPages": 4523,
      "Ġoverwriting": 4524,
      "Ġretrying": 4525,
      "Ġretryable": 4526,
      "ĠRecursion": 4527,
      "ĠfibMemo": 4528,
      "Ġrolling": 4529,
      "Compile": 4530,
      "ĠLogs": 4531,
      "ĠrejectPrev": 4532,
      "Ġindegrees": 4533,
      "Ġmetrics": 4534,
      "abcdefghijk": 4535,
      "container": 4536,
      "Ġcopying": 4537,
      "WithRetry": 4538,
      "ibility": 4539,
      "attr": 4540,
      "ĠgoalNode": 4541,
      "fetchData": 4542,
      "Ġspeeds": 4543,
      "annot": 4544,
      "ĠSets": 4545,
      "Config": 4546,
      "ewer": 4547,
      "ĠMaintain": 4548,
      "Ġhandlers": 4549,
      "ĠProcess": 4550,
      "Ġexplore": 4551,
      "Ġallows": 4552,
      "Ġallowlist": 4553,
      "alindromes": 4554,
      "HttpRequest": 4555,
      "byte": 4556,
      "ĠCLIs": 4557,
      "ĠCLIEN": 4558,
      "Logger": 4559,
      "MinPQ": 4560,
      "Ġvisits": 4561,
      "Ġmemoizes": 4562,
      "Ġimproved": 4563,
      "containsKey": 4564,
      "Ġpagination": 4565,
      "Ġpaginated": 4566,
      "Ġreplacement": 4567,
      "ĠResize": 4568,
      "Ġmultiplies": 4569,
      "ĠLogger": 4570,
      "ĠLogRecord": 4571,
      "Ġextracted": 4572,
      "Ġimmutable": 4573,
      "ĠOrd": 4574,
      "Ġdownward": 4575,
      "Ġdownstream": 4576,
      "Ġguarantee": 4577,
      "ĠLinkedHashMap": 4578,
      "Ġcomputations": 4579,
      "Ġcollisions": 4580,
      "Ġalphabets": 4581,
      "Ġslicing": 4582,
      "Ġassumed": 4583,
      "Ġenforces": 4584,
      "ĠInitializes": 4585,
      "Ġparameterized": 4586,
      "Ġsatisfied": 4587,
      "Order": 4588,
      "Ġterminates": 4589,
      "Ġcriteria": 4590,
      "bounceAsync": 4591,
      "Ġrelaxing": 4592,
      "Ġabsent": 4593,
      "cheduled": 4594,
      "TypeError": 4595,
      "ĠExceptions": 4596,
      "Ġlocate": 4597,
      "Ġdeterministic": 4598,
      "www": 4599,
      "Ġreversing": 4600,
      "ĠSkips": 4601,
      "Ġdeserialize": 4602,
      "Ġrules": 4603,
      "ĠParsed": 4604,
      "fffffff": 4605,
      "ĠMemoize": 4606,
      "Ġdiagonals": 4607,
      "BodyHandlers": 4608,
      "Substring": 4609,
      "suffix": 4610,
      "regexp": 4611,
      "Ġrecurse": 4612,
      "Ġview": 4613,
      "Ġconverts": 4614,
      "Ġdecrease": 4615,
      "Ġcoercion": 4616,
      "Ġgrouping": 4617,
      "Ġexecutes": 4618,
      "Ġindicating": 4619,
      "FirstSearch": 4620,
      "autiful": 4621,
      "blocked": 4622,
      "indegree": 4623,
      "Ġsilent": 4624,
      "Ġblan": 4625,
      "Ġmoving": 4626,
      "Ġlibrary": 4627,
      "ĠPaginate": 4628,
      "Ġexhausting": 4629,
      "ĠHere": 4630,
      "Ġclamps": 4631,
      "Ġshapes": 4632,
      "Ġpriorities": 4633,
      "Ġscalar": 4634,
      "Ġoccurrence": 4635,
      "DoubleFunction": 4636,
      "Ġdirectly": 4637,
      "Fixed": 4638,
      "Parts": 4639,
      "ources": 4640,
      "Ġnaturally": 4641,
      "Ġlacked": 4642,
      "ĠStrict": 4643,
      "Ġdecimal": 4644,
      "CommonSubstring": 4645,
      "Ġgoroutine": 4646,
      "Ġarbitrary": 4647,
      "quences": 4648,
      "ĠEmptyStackException": 4649,
      "ĠEuclidean": 4650,
      "Ġsharp": 4651,
      "ĠbaseDelayMs": 4652,
      "ĠuploadWithRetry": 4653,
      "Ġbranch": 4654,
      "'],['": 4655,
      "(/\\": 4656,
      ",#,#,": 4657,
      ":[]},": 4658,
      "<?>": 4659,
      "Bounds": 4660,
      "HTTP": 4661,
      "MustCompile": 4662,
      "Success": 4663,
      "category": 4664,
      "discard": 4665,
      "friendly": 4666,
      "lta": 4667,
      "lug": 4668,
      "lmnopqrst": 4669,
      "prefix": 4670,
      "uvwxyz": 4671,
      "reversed": 4672,
      "onotonic": 4673,
      "Ġsavings": 4674,
      "description": 4675,
      "Ġrectangular": 4676,
      "mpotent": 4677,
      "Ġinclusive": 4678,
      "anhattan": 4679,
      "Ġelevations": 4680,
      "entrantLock": 4681,
      "ramework": 4682,
      "Ġdegrade": 4683,
      "Ġdereferen": 4684,
      "Ġdecoded": 4685,
      "Ġdescriptive": 4686,
      "ĠIsValidEmail": 4687,
      "Ġresponses": 4688,
      "Ġbuffered": 4689,
      "ĠDepth": 4690,
      "ĠEquality": 4691,
      "Ġcomprehension": 4692,
      "Ġcancellation": 4693,
      "program": 4694,
      "abcdefghijklmnopqrst": 4695,
      "ĠCLIENT": 4696,
      "abcdefghijklmnopqrstuvwxyz": 4697,
      "\").": 4698,
      "#\":": 4699,
      "']]": 4700,
      "'].": 4701,
      "($": 4702,
      "(()": 4703,
      "(',": 4704,
      "(...": 4705,
      ")-": 4706,
      ")/": 4707,
      ")>": 4708,
      ")?": 4709,
      ")}": 4710,
      "18": 4711,
      "19": 4712,
      ">();": 4713,
      ">\");": 4714,
      "?:": 4715,
      "Che": 4716,
      "Circular": 4717,
      "Des": 4718,
      "Is": 4719,
      "JS": 4720,
      "Ladder": 4721,
      "Match": 4722,
      "Non": 4723,
      "Name": 4724,
      "New": 4725,
      "OF": 4726,
      "PI": 4727,
      "Pop": 4728,
      "Predicate": 4729,
      "Pool": 4730,
      "Point": 4731,
      "Physical": 4732,
      "QL": 4733,
      "Rate": 4734,
      "Rain": 4735,
      "Range": 4736,
      "ROM": 4737,
      "So": 4738,
      "Ser": 4739,
      "System": 4740,
      "Serial": 4741,
      "SegmentTree": 4742,
      "Scheduled": 4743,
      "Two": 4744,
      "Text": 4745,
      "Task": 4746,
      "Ver": 4747,
      "WARN": 4748,
      "[*": 4749,
      "\\\\.[": 4750,
      "]=": 4751,
      "][]": 4752,
      "]][": 4753,
      "]').": 4754,
      "aw": 4755,
      "aind": 4756,
      "aded": 4757,
      "bo": 4758,
      "bed": 4759,
      "came": 4760,
      "cans": 4761,
      "cently": 4762,
      "clockwise": 4763,
      "dr": 4764,
      "date": 4765,
      "domain": 4766,
      "element": 4767,
      "each": 4768,
      "eNode": 4769,
      "even": 4770,
      "eautiful": 4771,
      "fault": 4772,
      "framework": 4773,
      "gu": 4774,
      "gy": 4775,
      "gard": 4776,
      "hte": 4777,
      "handle": 4778,
      "iation": 4779,
      "ift": 4780,
      "iod": 4781,
      "land": 4782,
      "llections": 4783,
      "md": 4784,
      "mu": 4785,
      "main": 4786,
      "mod": 4787,
      "ni": 4788,
      "nal": 4789,
      "not": 4790,
      "nail": 4791,
      "ness": 4792,
      "naps": 4793,
      "norm": 4794,
      "oc": 4795,
      "oval": 4796,
      "object": 4797,
      "pat": 4798,
      "pass": 4799,
      "pow": 4800,
      "palindrome": 4801,
      "pdates": 4802,
      "run": 4803,
      "rune": 4804,
      "sh": 4805,
      "sole": 4806,
      "spect": 4807,
      "sleep": 4808,
      "spring": 4809,
      "ten": 4810,
      "ted": 4811,
      "tld": 4812,
      "task": 4813,
      "uity": 4814,
      "uates": 4815,
      "udo": 4816,
      "vg": 4817,
      "vens": 4818,
      "vice": 4819,
      "xml": 4820,
      "yp": 4821,
      "Â°": 4822,
      "Ġque": 4823,
      "ĠQu": 4824,
      "inis": 4825,
      "insensitive": 4826,
      "reverse": 4827,
      "recently": 4828,
      "Ġaut": 4829,
      "Ġach": 4830,
      "Ġaff": 4831,
      "Ġavg": 4832,
      "Ġtune": 4833,
      "orSer": 4834,
      "struct": 4835,
      "erage": 4836,
      "erException": 4837,
      "erxml": 4838,
      "atus": 4839,
      "ature": 4840,
      "atrix": 4841,
      "atically": 4842,
      "itig": 4843,
      "hest": 4844,
      "Ġcand": 4845,
      "Ġcast": 4846,
      "Ġcumul": 4847,
      "Ġsync": 4848,
      "Ġsys": 4849,
      "Ġslug": 4850,
      "Ġps": 4851,
      "Ġpse": 4852,
      "Ġpred": 4853,
      "Ġpromise": 4854,
      "Ġphysical": 4855,
      "Ġpalindromes": 4856,
      "Ġfan": 4857,
      "Ġfur": 4858,
      "Ġfine": 4859,
      "Ġfewer": 4860,
      "ality": 4861,
      "algorithm": 4862,
      "Ġnorm": 4863,
      "uting": 4864,
      "utation": 4865,
      "utates": 4866,
      "Ġreth": 4867,
      "Ġrebuild": 4868,
      "Ġrejection": 4869,
      "Ġregard": 4870,
      "aring": 4871,
      "arate": 4872,
      "arches": 4873,
      "Ġinc": 4874,
      "Ġinorder": 4875,
      "Ġinspect": 4876,
      "enumerate": 4877,
      "ancy": 4878,
      "Ġ{{": 4879,
      "Ġbal": 4880,
      "Ġbalanced": 4881,
      "Ġwould": 4882,
      ");`": 4883,
      "Ġmu": 4884,
      "Ġmir": 4885,
      "Ġmaking": 4886,
      "Ġmysql": 4887,
      "Ġmitig": 4888,
      "Ġ(++": 4889,
      "ride": 4890,
      "ico": 4891,
      "ged": 4892,
      "edTuple": 4893,
      "Ġow": 4894,
      "Ġobj": 4895,
      "Ġoptions": 4896,
      "thing": 4897,
      "ĠTune": 4898,
      "ĠTreats": 4899,
      "ĠTopo": 4900,
      "entry": 4901,
      "ish": 4902,
      "avg": 4903,
      "average": 4904,
      "istances": 4905,
      "istics": 4906,
      "ĠSize": 4907,
      "ĠSep": 4908,
      "ĠSerialize": 4909,
      "ĠScheduler": 4910,
      "ĠScans": 4911,
      "plus": 4912,
      "plied": 4913,
      "Ġ11": 4914,
      "Ġthumb": 4915,
      "Ġdone": 4916,
      "Ġdig": 4917,
      "Ġdriver": 4918,
      "Ġ`#": 4919,
      "Ġ`%": 4920,
      "Ġ`-": 4921,
      "Ġ`.": 4922,
      "idth": 4923,
      "ints": 4924,
      "asure": 4925,
      "ashes": 4926,
      "ithout": 4927,
      "Ġnearly": 4928,
      "Index": 4929,
      "Ġintention": 4930,
      "Ġdeboun": 4931,
      "Ġdebounced": 4932,
      "Ġdelta": 4933,
      "ilar": 4934,
      "ilation": 4935,
      "vec": 4936,
      "child": 4937,
      "chaining": 4938,
      "chni": 4939,
      "imeError": 4940,
      "loop": 4941,
      "ategy": 4942,
      "Count": 4943,
      "Ġgreater": 4944,
      "Ġ[\"\"": 4945,
      "Ġ[]);": 4946,
      "Ġrs": 4947,
      "Ġrunt": 4948,
      "Ġranges": 4949,
      "Ġarrow": 4950,
      "artial": 4951,
      "Ġhig": 4952,
      "Ġhits": 4953,
      "Ġhtml": 4954,
      "ctions": 4955,
      "ĠFast": 4956,
      "ĠFROM": 4957,
      "Ġloaded": 4958,
      "Ġjson": 4959,
      "ĠjQuery": 4960,
      "upper": 4961,
      "update": 4962,
      "upancy": 4963,
      "Ġisland": 4964,
      "nection": 4965,
      "ĠAPI": 4966,
      "cribed": 4967,
      "Retri": 4968,
      "Remove": 4969,
      "Ġsearches": 4970,
      "::{": 4971,
      "quent": 4972,
      "Ġconstruct": 4973,
      "amedTuple": 4974,
      "Ġpoor": 4975,
      "ĠWithout": 4976,
      "ĠLC": 4977,
      "ĠLIS": 4978,
      "ullPoint": 4979,
      "rowing": 4980,
      "ĠPre": 4981,
      "ĠPrint": 4982,
      "ĠPrev": 4983,
      "ĠPoint": 4984,
      "ĠPartial": 4985,
      "Ġresizes": 4986,
      "Ġrespect": 4987,
      "resol": 4988,
      "romises": 4989,
      "olation": 4990,
      "olds": 4991,
      "Ġchos": 4992,
      "Ġchoose": 4993,
      "ĠJsoup": 4994,
      "abling": 4995,
      "Ġ*,": 4996,
      "))`": 4997,
      "))`,": 4998,
      "Ġ\"\"": 4999,
      "Ġ\"*": 5000,
      "Ġ\"#\":": 5001,
      "Ġexc": 5002,
      "Ġunlimited": 5003,
      "Ġunmod": 5004,
      "Ġbuilds": 5005,
      "Ġbuffers": 5006,
      "databind": 5007,
      "Ġasynchron": 5008,
      "ĠCase": 5009,
      "ĠCatch": 5010,
      "ĠCustom": 5011,
      "Ġminimist": 5012,
      "ĠDistances": 5013,
      "peated": 5014,
      "ĠEquivalent": 5015,
      "ĠRead": 5016,
      "ĠReads": 5017,
      "ĠRepeated": 5018,
      "ĠName": 5019,
      "ĠNegative": 5020,
      "(\"/": 5021,
      "(\"^[\\": 5022,
      "Ġali": 5023,
      "Ġalread": 5024,
      "clone": 5025,
      "client": 5026,
      "Ġprompt": 5027,
      "Ġdefined": 5028,
      "maxlen": 5029,
      "maximum": 5030,
      "aching": 5031,
      "coding": 5032,
      "conv": 5033,
      "ĠUpdates": 5034,
      "ĠMax": 5035,
      "ĠMessage": 5036,
      "ĠMatching": 5037,
      "ĠManhattan": 5038,
      "ĠMutates": 5039,
      "Ġletter": 5040,
      "ictable": 5041,
      "Ġknaps": 5042,
      "Ġdatabase": 5043,
      "Ġdatasets": 5044,
      "oneous": 5045,
      "ects": 5046,
      "Ġavoiding": 5047,
      "Ġattempts": 5048,
      "Ġclone": 5049,
      "Ġmaxima": 5050,
      "Ġcompli": 5051,
      "default": 5052,
      "Ġ'+": 5053,
      "logs": 5054,
      "Star": 5055,
      "Status": 5056,
      "ĠBy": 5057,
      "ĠBig": 5058,
      "ĠBasic": 5059,
      "ĠBeautiful": 5060,
      "Ġencode": 5061,
      "Ġensures": 5062,
      "Ġenabling": 5063,
      "Ġstatus": 5064,
      "Ġvalidations": 5065,
      "Ġvalidated": 5066,
      "Ġpremat": 5067,
      "Ġtyped": 5068,
      "number": 5069,
      "ĠlengthOf": 5070,
      "isecond": 5071,
      "Ġupward": 5072,
      "Ġoutside": 5073,
      "Ġoperate": 5074,
      "except": 5075,
      "action": 5076,
      "active": 5077,
      "Ġfaster": 5078,
      "ĠRange": 5079,
      "ĠRunt": 5080,
      "ĠREST": 5081,
      "ilder": 5082,
      "Ġ55": 5083,
      "cluding": 5084,
      "Ġcheerio": 5085,
      "omatically": 5086,
      "Ġinstance": 5087,
      "Ġinstalle": 5088,
      "ĠIteratively": 5089,
      "Ġedit": 5090,
      "Ġhandled": 5091,
      "includes": 5092,
      "Ġdepends": 5093,
      "Ġpops": 5094,
      "Ġpathfind": 5095,
      "Ġmapper": 5096,
      "Ġupdating": 5097,
      "Ġextending": 5098,
      "Ġimplements": 5099,
      "Ġremaind": 5100,
      "Ġmutation": 5101,
      "Ġmutable": 5102,
      "Ġmutations": 5103,
      "Ġfinalized": 5104,
      "Ġwere": 5105,
      "charAt": 5106,
      "Maximum": 5107,
      "Ġappending": 5108,
      "((_,": 5109,
      "]]]": 5110,
      "used": 5111,
      "newBu": 5112,
      "newHttpClient": 5113,
      "101": 5114,
      "toString": 5115,
      "touch": 5116,
      "toChar": 5117,
      "Ġgives": 5118,
      "ofString": 5119,
      "Ġdominates": 5120,
      "Ġproduct": 5121,
      "ĠpivotIndex": 5122,
      "Ġstrategy": 5123,
      "Ġsimpl": 5124,
      "ĠAdjacency": 5125,
      "Logs": 5126,
      "backoff": 5127,
      "parsed": 5128,
      "ĠprintArray": 5129,
      "ĠprintHel": 5130,
      "ĠEnqueue": 5131,
      "ĠCommand": 5132,
      "ĠComb": 5133,
      "Ġexisting": 5134,
      "uplicate": 5135,
      "ĠUnder": 5136,
      "ĠUnbalanced": 5137,
      "Mapper": 5138,
      "fines": 5139,
      "ĠExp": 5140,
      "Ġdisconnected": 5141,
      "')`": 5142,
      "Ġdijk": 5143,
      "ĠErrors": 5144,
      "ĠvalidateInput": 5145,
      "hasNext": 5146,
      "Ġswaps": 5147,
      "Ġnormalizes": 5148,
      "Ġhello": 5149,
      "ĠStrings": 5150,
      "ĠupdateLog": 5151,
      "ĠupdatePhysical": 5152,
      "Ġaccumulators": 5153,
      "Ġtransformations": 5154,
      "Value": 5155,
      "ĠDefines": 5156,
      "=[[": 5157,
      "fasterxml": 5158,
      "Ġsimpler": 5159,
      "pageSize": 5160,
      "Ġflat": 5161,
      "Ġflags": 5162,
      "ĠHttpRetri": 5163,
      "source": 5164,
      "web": 5165,
      "Ġcapt": 5166,
      "Ġremoving": 5167,
      "Arc": 5168,
      "Args": 5169,
      "Ġinitializes": 5170,
      "reserve": 5171,
      "Ġroutes": 5172,
      "ĠFixes": 5173,
      ")=-": 5174,
      ")=>": 5175,
      "Ġmaintains": 5176,
      "Ġconnected": 5177,
      "Ġerroneous": 5178,
      "Ġretrieves": 5179,
      "printf": 5180,
      "Ġpreserving": 5181,
      "undirected": 5182,
      "LIS": 5183,
      "ORLD": 5184,
      "WithUnion": 5185,
      "distance": 5186,
      "Ġnothing": 5187,
      "Ġhold": 5188,
      "ĠcontainsKey": 5189,
      "Ġ$('": 5190,
      "Ġrelies": 5191,
      "ĠBSTNode": 5192,
      "Ġdifferently": 5193,
      "Connection": 5194,
      "Ġlimited": 5195,
      "Ġinterface": 5196,
      "Ġinterpre": 5197,
      "Ġinternal": 5198,
      "Ġtimeouts": 5199,
      "double": 5200,
      "Ġbars": 5201,
      "IntStream": 5202,
      "HttpResponse": 5203,
      "Keys": 5204,
      "ĠOnly": 5205,
      "ĠSummarize": 5206,
      "ivision": 5207,
      "Ġcollects": 5208,
      "Ġexpressions": 5209,
      "Minimum": 5210,
      "Ġdeletes": 5211,
      "Ġbodies": 5212,
      "matcher": 5213,
      "Ġ{})": 5214,
      "pload": 5215,
      "ĠPageResult": 5216,
      "ĠReturnType": 5217,
      "ĠMinQueue": 5218,
      "Ġmultiply": 5219,
      "Ġmultiplication": 5220,
      "Ġextracting": 5221,
      "([][]": 5222,
      "Ġ819": 5223,
      "Ġserialized": 5224,
      "Ġevaluates": 5225,
      "ĠOrder": 5226,
      "Ġdownload": 5227,
      "Ġdivisible": 5228,
      "Ġintegr": 5229,
      "Ġsubsequences": 5230,
      "Ġdoubles": 5231,
      "Ġwalkable": 5232,
      "ĠTrappingRain": 5233,
      "Ġactual": 5234,
      "Ġcustomize": 5235,
      "Ġsignature": 5236,
      "Ġreplacing": 5237,
      "Ġreplaced": 5238,
      "ĠLinkedHashSet": 5239,
      "Ġsuccessor": 5240,
      "ĠCompile": 5241,
      ".-]+\\\\.[": 5242,
      "ToBinary": 5243,
      "Ġrestores": 5244,
      "ĠTracks": 5245,
      "Ġmutexes": 5246,
      ",}$\"": 5247,
      ",}$\");": 5248,
      "LowerCase": 5249,
      "Ġidempotent": 5250,
      "Ġinvoc": 5251,
      "Ġwaits": 5252,
      "Ġmaterialization": 5253,
      "ĠladderLength": 5254,
      "Ġrelaxes": 5255,
      "xyzabcd": 5256,
      "Println": 5257,
      "TrieNode": 5258,
      "Ġoccurs": 5259,
      "Ġconfiguration": 5260,
      "ĠStreamFile": 5261,
      "ĠConsole": 5262,
      "Ġreflects": 5263,
      "ĠThreadSafePriorityQueue": 5264,
      "Ġpushed": 5265,
      "Ġpayload": 5266,
      "Ġchunked": 5267,
      "Ġexactly": 5268,
      "Ġpropagation": 5269,
      "Ġpropagate": 5270,
      "Ġshallower": 5271,
      "ĠConcurrentLRU": 5272,
      "Ġrotate": 5273,
      "BSTNode": 5274,
      "overflow": 5275,
      "removal": 5276,
      "Ġrecomputation": 5277,
      "icking": 5278,
      "Ġviolation": 5279,
      "Ġvariants": 5280,
      "Ġresolve": 5281,
      "Ġresolves": 5282,
      "ĠURLs": 5283,
      "Ġattach": 5284,
      "Ġattaches": 5285,
      "Ġindicates": 5286,
      "Ġscanning": 5287,
      "Ġgeneralize": 5288,
      "abcdxyz": 5289,
      "Ġidentity": 5290,
      "ĠBoundedPriorityQueue": 5291,
      "Formatter": 5292,
      "AtFixed": 5293,
      "LinkedHashMap": 5294,
      "SELE": 5295,
      "WaterMar": 5296,
      "Ġschema": 5297,
      "Ġretain": 5298,
      "Ġretains": 5299,
      "Ġstops": 5300,
      "Ġcovers": 5301,
      "ĠPerforms": 5302,
      "Ġimpossible": 5303,
      "Ġimpossibility": 5304,
      "Ġrisky": 5305,
      "Ġcollapse": 5306,
      "Ġinvoking": 5307,
      "Ġenvironment": 5308,
      "Ġenvironments": 5309,
      "Millisecond": 5310,
      "Usage": 5311,
      "evicts": 5312,
      "Ġtechni": 5313,
      "Ġcreating": 5314,
      "Ġfollow": 5315,
      "Ġwalls": 5316,
      "Ġconcern": 5317,
      "Ġargparse": 5318,
      "ĠisValidBST": 5319,
      "Ġtruncation": 5320,
      "ĠCheerio": 5321,
      "Ġ'#'": 5322,
      "ĠBreadthFirstSearch": 5323,
      "ggingExample": 5324,
      "Ġdoubling": 5325,
      "Ġsimply": 5326,
      "Controller": 5327,
      "Ġcounterclockwise": 5328,
      "Ġsurprises": 5329,
      "Ġcalculate": 5330,
      "Ġconcatenation": 5331,
      "ieve": 5332,
      "Ġscores": 5333,
      "Ġimplies": 5334,
      "Ġrevisits": 5335,
      "Ġinfinitely": 5336,
      "Ġlayers": 5337,
      "Ġoccupancy": 5338,
      "ExecutorSer": 5339,
      "Ġdescribed": 5340,
      "ĠWHERE": 5341,
      "Ġchoice": 5342,
      "ĠDecimal": 5343,
      "Ġattributes": 5344,
      "Ġcloning": 5345,
      "exceptions": 5346,
      "Ġflooding": 5347,
      "annotation": 5348,
      "ĠProcesses": 5349,
      "Ġblanks": 5350,
      ")?.": 5351,
      "Check": 5352,
      "CircularBuffer": 5353,
      "Islands": 5354,
      "MatchString": 5355,
      "Soup": 5356,
      "Serializer": 5357,
      "Vertex": 5358,
      "cameFrom": 5359,
      "htein": 5360,
      "patches": 5361,
      "springframework": 5362,
      "venshtein": 5363,
      "Ġautomatically": 5364,
      "Ġachieve": 5365,
      "Ġcandid": 5366,
      "Ġcumulatively": 5367,
      "Ġpseudo": 5368,
      "Ġpredictable": 5369,
      "Ġfurther": 5370,
      "Ġregardless": 5371,
      "Ġmirror": 5372,
      "Ġmitigate": 5373,
      "ĠSeparate": 5374,
      "Ġthumbnail": 5375,
      "Ġdigits": 5376,
      "Ġintentionally": 5377,
      "Ġdebounces": 5378,
      "Ġ[\"\"]).": 5379,
      "Ġruntimes": 5380,
      "Ġhighest": 5381,
      "ullPointerException": 5382,
      "resolve": 5383,
      "Ġchosen": 5384,
      "Ġunmodified": 5385,
      "Ġasynchronous": 5386,
      "ĠCustomize": 5387,
      "ĠRepeatedly": 5388,
      "(\"^[\\\\": 5389,
      "Ġalready": 5390,
      "Ġknapsack": 5391,
      "Ġcompliance": 5392,
      "StatusCode": 5393,
      "ĠBeautifulSoup": 5394,
      "Ġpremature": 5395,
      "ĠlengthOfLIS": 5396,
      "ĠRuntimeError": 5397,
      "Ġinstalled": 5398,
      "Ġpathfinding": 5399,
      "Ġremainder": 5400,
      "newBuilder": 5401,
      "toCharArray": 5402,
      "Ġsimplified": 5403,
      "ĠprintHelp": 5404,
      "ĠCommander": 5405,
      "Ġdijkstra": 5406,
      "ĠupdateLogical": 5407,
      "ĠHttpRetrier": 5408,
      "Ġ8192": 5409,
      "ĠTrappingRainWater": 5410,
      "AtFixedRate": 5411,
      "SELECT": 5412,
      "WaterMark": 5413,
      "ExecutorService": 5414,
      "!(\"": 5415,
      "\"],": 5416,
      "\"],[": 5417,
      "'.": 5418,
      "'t": 5419,
      "'ve": 5420,
      "'],": 5421,
      "')):": 5422,
      "(())": 5423,
      "){": 5424,
      ")).": 5425,
      ")])": 5426,
      ")!;": 5427,
      "*']": 5428,
      "+',": 5429,
      "+','": 5430,
      ".(": 5431,
      ".(*": 5432,
      "080": 5433,
      "224": 5434,
      "<(": 5435,
      "=%": 5436,
      ">;": 5437,
      ">=": 5438,
      ">{": 5439,
      ">],": 5440,
      ">):": 5441,
      ">')": 5442,
      "@`,": 5443,
      "AM": 5444,
      "AP": 5445,
      "Al": 5446,
      "BC": 5447,
      "Bl": 5448,
      "Bo": 5449,
      "CI": 5450,
      "Ce": 5451,
      "Cle": 5452,
      "Car": 5453,
      "COM": 5454,
      "Close": 5455,
      "DSU": 5456,
      "DBC": 5457,
      "EG": 5458,
      "EX": 5459,
      "El": 5460,
      "En": 5461,
      "Ent": 5462,
      "Fn": 5463,
      "Front": 5464,
      "GET": 5465,
      "Greet": 5466,
      "If": 5467,
      "IRead": 5468,
      "Image": 5469,
      "Items": 5470,
      "Kadane": 5471,
      "Line": 5472,
      "Merge": 5473,
      "Matrix": 5474,
      "Normal": 5475,
      "Negative": 5476,
      "NamedTuple": 5477,
      "NullPointerException": 5478,
      "On": 5479,
      "Out": 5480,
      "OST": 5481,
      "Per": 5482,
      "Par": 5483,
      "Pub": 5484,
      "PER": 5485,
      "Palindrome": 5486,
      "Post": 5487,
      "Perform": 5488,
      "PLE": 5489,
      "PAT": 5490,
      "PEG": 5491,
      "POST": 5492,
      "RE": 5493,
      "Rw": 5494,
      "Rx": 5495,
      "Race": 5496,
      "Sc": 5497,
      "Self": 5498,
      "Sync": 5499,
      "Segment": 5500,
      "Sleep": 5501,
      "SQL": 5502,
      "SCI": 5503,
      "Th": 5504,
      "TER": 5505,
      "Tool": 5506,
      "TEST": 5507,
      "Uint": 5508,
      "Work": 5509,
      "Zero": 5510,
      "[])": 5511,
      "](": 5512,
      "]*": 5513,
      "]))": 5514,
      "]\");": 5515,
      "_]": 5516,
      "_);": 5517,
      "_];": 5518,
      "auto": 5519,
      "away": 5520,
      "bre": 5521,
      "bal": 5522,
      "bubble": 5523,
      "cis": 5524,
      "clic": 5525,
      "cument": 5526,
      "cale": 5527,
      "cases": 5528,
      "close": 5529,
      "dx": 5530,
      "dy": 5531,
      "dul": 5532,
      "dices": 5533,
      "dfs": 5534,
      "eb": 5535,
      "eighbor": 5536,
      "fl": 5537,
      "fine": 5538,
      "fib": 5539,
      "fold": 5540,
      "factorial": 5541,
      "gment": 5542,
      "gres": 5543,
      "hort": 5544,
      "hand": 5545,
      "handler": 5546,
      "host": 5547,
      "hood": 5548,
      "iring": 5549,
      "iers": 5550,
      "iency": 5551,
      "ihood": 5552,
      "js": 5553,
      "kal": 5554,
      "kel": 5555,
      "lish": 5556,
      "me": 5557,
      "mo": 5558,
      "mim": 5559,
      "must": 5560,
      "mem": 5561,
      "medi": 5562,
      "merge": 5563,
      "mysql": 5564,
      "miss": 5565,
      "nb": 5566,
      "no": 5567,
      "non": 5568,
      "nse": 5569,
      "nce": 5570,
      "normal": 5571,
      "nio": 5572,
      "oth": 5573,
      "opt": 5574,
      "oves": 5575,
      "operation": 5576,
      "pg": 5577,
      "py": 5578,
      "pid": 5579,
      "pres": 5580,
      "promise": 5581,
      "promises": 5582,
      "rus": 5583,
      "rgument": 5584,
      "raries": 5585,
      "sers": 5586,
      "sync": 5587,
      "sizing": 5588,
      "schedule": 5589,
      "sql": 5590,
      "tr": 5591,
      "tit": 5592,
      "tot": 5593,
      "tation": 5594,
      "top": 5595,
      "ties": 5596,
      "tentative": 5597,
      "tick": 5598,
      "uche": 5599,
      "uous": 5600,
      "uards": 5601,
      "upload": 5602,
      "vari": 5603,
      "vided": 5604,
      "write": 5605,
      "wards": 5606,
      "width": 5607,
      "wiring": 5608,
      "xed": 5609,
      "yclic": 5610,
      "}!": 5611,
      "}()": 5612,
      "}},": 5613,
      "Ġ)": 5614,
      "Ġz": 5615,
      "ĠExample": 5616,
      "ĠZero": 5617,
      "ĠĠĠĠĠĠĠĠĠĠĠĠĠĠĠ": 5618,
      "inate": 5619,
      "iness": 5620,
      "req": 5621,
      "reat": 5622,
      "reject": 5623,
      "requi": 5624,
      "rehas": 5625,
      "retry": 5626,
      "record": 5627,
      "oned": 5628,
      "onents": 5629,
      "Ġage": 5630,
      "Ġtra": 5631,
      "Ġtempl": 5632,
      "orary": 5633,
      "oranges": 5634,
      "stit": 5635,
      "sting": 5636,
      "stController": 5637,
      "ern": 5638,
      "erces": 5639,
      "erging": 5640,
      "erface": 5641,
      "ital": 5642,
      "herent": 5643,
      "heses": 5644,
      "heme": 5645,
      "Ġcr": 5646,
      "Ġcasing": 5647,
      "Ġcmd": 5648,
      "Ġsz": 5649,
      "Ġsens": 5650,
      "Ġsites": 5651,
      "Ġscheduler": 5652,
      "Ġpan": 5653,
      "Ġpad": 5654,
      "Ġpack": 5655,
      "Ġpers": 5656,
      "Ġpast": 5657,
      "Ġpure": 5658,
      "Ġpadd": 5659,
      "Ġprune": 5660,
      "Ġpico": 5661,
      "Ġpicking": 5662,
      "Ġfis": 5663,
      "Ġfill": 5664,
      "Ġfresh": 5665,
      "Ġfruit": 5666,
      "dent": 5667,
      "denc": 5668,
      "debug": 5669,
      "debounceAsync": 5670,
      "Ġnam": 5671,
      "Ġnone": 5672,
      "utf": 5673,
      "Ġimage": 5674,
      "ionary": 5675,
      "Ġreq": 5676,
      "Ġreus": 5677,
      "Ġreli": 5678,
      "Ġrewiring": 5679,
      "mporary": 5680,
      "arrow": 5681,
      "arden": 5682,
      "Ġindef": 5683,
      "Ġinequal": 5684,
      "Ġinspe": 5685,
      "Ġinside": 5686,
      "Ġincluded": 5687,
      "Ġinherent": 5688,
      "ingu": 5689,
      "ingCircularBuffer": 5690,
      "anam": 5691,
      "Ġbit": 5692,
      "Ġbro": 5693,
      "Ġbatching": 5694,
      "Ġwas": 5695,
      "Ġwrit": 5696,
      "apply": 5697,
      "application": 5698,
      "Ġmono": 5699,
      "Ġmonotonic": 5700,
      "Ġthese": 5701,
      "Ġtheore": 5702,
      "Ġ(\"": 5703,
      "Ġ()))": 5704,
      "Ġ(['": 5705,
      "select": 5706,
      "segment": 5707,
      "icksort": 5708,
      "Ġstates": 5709,
      "Ġstay": 5710,
      "Ġstrip": 5711,
      "Ġlg": 5712,
      "Ġlif": 5713,
      "mplete": 5714,
      "unch": 5715,
      "unlock": 5716,
      "role": 5717,
      "eding": 5718,
      "edException": 5719,
      "Ġveg": 5720,
      "Ġoth": 5721,
      "Ġomit": 5722,
      "throw": 5723,
      "three": 5724,
      "Ġforward": 5725,
      "ĠTer": 5726,
      "ĠTight": 5727,
      "ĠTotal": 5728,
      "ĠTask": 5729,
      "ĠTyp": 5730,
      "entries": 5731,
      "entiation": 5732,
      "ums": 5733,
      "umable": 5734,
      "isValid": 5735,
      "elax": 5736,
      "ists": 5737,
      "ĠSend": 5738,
      "ĠSerial": 5739,
      "ĠSplit": 5740,
      "ĠSpring": 5741,
      "ĠShort": 5742,
      "izable": 5743,
      "image": 5744,
      "imination": 5745,
      "Ġ13": 5746,
      "Ġ18": 5747,
      "Ġthresh": 5748,
      "Ġdon": 5749,
      "Ġdot": 5750,
      "Ġdid": 5751,
      "Ġdra": 5752,
      "Ġdirectional": 5753,
      "Ġdashes": 5754,
      "Ġ`(": 5755,
      "Ġ`--": 5756,
      "Ġ`==": 5757,
      "Ġ`@`,": 5758,
      "iding": 5759,
      "into": 5760,
      "interface": 5761,
      "Ġnesting": 5762,
      "Invalid": 5763,
      "Ġleaf": 5764,
      "Ġleave": 5765,
      "Ġleaving": 5766,
      "Ġconcre": 5767,
      "Ġcontext": 5768,
      "Ġcontrib": 5769,
      "ptedException": 5770,
      "Ġdebu": 5771,
      "Ġdebug": 5772,
      "ĠdebounceAsync": 5773,
      "Ġdense": 5774,
      "veg": 5775,
      "():": 5776,
      "()),": 5777,
      "()`,": 5778,
      "()};": 5779,
      "()!;": 5780,
      "lobal": 5781,
      "Ġcog": 5782,
      "Ġcoord": 5783,
      "Ġcomm": 5784,
      "Ġcould": 5785,
      "Counter": 5786,
      "Collections": 5787,
      "Ġgrap": 5788,
      "Ġglobal": 5789,
      "Ġ[][": 5790,
      "Ġrl": 5791,
      "Ġran": 5792,
      "Ġrate": 5793,
      "Ġrvalue": 5794,
      "Ġrandom": 5795,
      "Ġrapid": 5796,
      "ceil": 5797,
      "terru": 5798,
      "Ġhot": 5799,
      "Ġhref": 5800,
      "Ġhood": 5801,
      "Ġhints": 5802,
      "Ġharden": 5803,
      ").\"\"\"": 5804,
      "licity": 5805,
      "ĠItems": 5806,
      "Ġones": 5807,
      "ĠonCh": 5808,
      "updates": 5809,
      "Ġisn": 5810,
      "ĠisPalindrome": 5811,
      "ĠnumIslands": 5812,
      "nested": 5813,
      "necessary": 5814,
      "ĠArc": 5815,
      "ĠAStar": 5816,
      "ĠASCI": 5817,
      "ĠArgument": 5818,
      "Ġ25": 5819,
      "Replace": 5820,
      "Regex": 5821,
      "ReentrantLock": 5822,
      "RestController": 5823,
      "Ġsequ": 5824,
      "Ġselection": 5825,
      "Ġseeds": 5826,
      "Ġseconds": 5827,
      "Ġselects": 5828,
      "Ġsections": 5829,
      "keyField": 5830,
      "keyBy": 5831,
      "ques": 5832,
      "quency": 5833,
      "quares": 5834,
      "Ġpool": 5835,
      "Ġpoole": 5836,
      "ĠWater": 5837,
      "ĠWARN": 5838,
      "ĠWORLD": 5839,
      "ĠWeb": 5840,
      "ustness": 5841,
      "ĠLower": 5842,
      "ĠPref": 5843,
      "ĠPanam": 5844,
      "Ġresize": 5845,
      "Ġresumable": 5846,
      "resence": 5847,
      "resources": 5848,
      "Ġboom": 5849,
      "Ġchanges": 5850,
      "ĠJackson": 5851,
      "ĠJDBC": 5852,
      "ĠJPEG": 5853,
      "getOr": 5854,
      "getLogger": 5855,
      "))]": 5856,
      "Ġadapt": 5857,
      "Ġ\")": 5858,
      "Ġ\":": 5859,
      "Ġ\"))": 5860,
      "Ġ\"--": 5861,
      "Ġ\"\";": 5862,
      "Ġextern": 5863,
      "Ġexits": 5864,
      "Ġexpose": 5865,
      "Ġexternal": 5866,
      "lying": 5867,
      "lyList": 5868,
      "Ġunary": 5869,
      "Ġunche": 5870,
      "Ġunto": 5871,
      "Ġunset": 5872,
      "Ġunsafe": 5873,
      "Ġunordered": 5874,
      "Ġunnecessary": 5875,
      "rightVal": 5876,
      "ĠCorre": 5877,
      "Ġmins": 5878,
      "Ġminus": 5879,
      "Ġminimal": 5880,
      "ĠminStart": 5881,
      "permutations": 5882,
      "ĠDynam": 5883,
      "ĠDuplicate": 5884,
      "ĠDivision": 5885,
      "pected": 5886,
      "itions": 5887,
      "ĠVisited": 5888,
      "assic": 5889,
      "ĠES": 5890,
      "ĠEq": 5891,
      "ĠEmail": 5892,
      "ĠEOF": 5893,
      "ĠRepresent": 5894,
      "ĠReentrantLock": 5895,
      "ĠNull": 5896,
      "ĠNew": 5897,
      "ĠNeighbor": 5898,
      "ĠNarrow": 5899,
      "(\"\".": 5900,
      "(\"\").": 5901,
      "Ġstdout": 5902,
      "Ġstdlib": 5903,
      "Ġalways": 5904,
      "cli": 5905,
      "cloned": 5906,
      "Ġprote": 5907,
      "Ġproto": 5908,
      "Ġ300": 5909,
      "ables": 5910,
      "console": 5911,
      "ĠUX": 5912,
      "ĠMar": 5913,
      "ĠMST": 5914,
      "ĠMedian": 5915,
      "ĠMonotonic": 5916,
      "ĠMAP": 5917,
      "ĠMoves": 5918,
      "ĠMerging": 5919,
      "iguity": 5920,
      "Ġerasure": 5921,
      "ĠHead": 5922,
      "rule": 5923,
      "ruction": 5924,
      "Ġatom": 5925,
      "Ġshutdown": 5926,
      "Ġshift": 5927,
      "ĠmaxStart": 5928,
      "[]`": 5929,
      "[][]": 5930,
      "[][]):": 5931,
      "minimist": 5932,
      "Ġprim": 5933,
      "Ġstarts": 5934,
      "ĠstartsWith": 5935,
      "Ġcompat": 5936,
      "Ġcompiled": 5937,
      "Ġcomponents": 5938,
      "defer": 5939,
      "Ġperiod": 5940,
      "Ġ')": 5941,
      "Ġ');": 5942,
      "Ġ'),": 5943,
      "Ġthrown": 5944,
      "ĠBoth": 5945,
      "Ġrecurses": 5946,
      "ĠrightVal": 5947,
      "ĠAdapt": 5948,
      "Ġenum": 5949,
      "Ġstatistics": 5950,
      "ĠfindEntry": 5951,
      "Ġoverloads": 5952,
      "Ġoverride": 5953,
      "ĠleftVal": 5954,
      "Ġleftover": 5955,
      "leftVal": 5956,
      "ckets": 5957,
      "Ġquality": 5958,
      "Ġheaders": 5959,
      "header": 5960,
      "readFile": 5961,
      "Ġclasspath": 5962,
      "ĠgetJson": 5963,
      "popitem": 5964,
      "exit": 5965,
      "exec": 5966,
      "expect": 5967,
      "duces": 5968,
      "ĠRapid": 5969,
      "ĠRelax": 5970,
      "ĠInvalid": 5971,
      "ĠIndices": 5972,
      "ĠInterru": 5973,
      "olean": 5974,
      "ĠwordSet": 5975,
      "ĠwordLadder": 5976,
      "stringify": 5977,
      "format": 5978,
      "idered": 5979,
      "ĠGC": 5980,
      "ĠGuards": 5981,
      "Ġelimination": 5982,
      "ifiers": 5983,
      "Ġnondecreasing": 5984,
      "ĠnonAl": 5985,
      "upported": 5986,
      "Ġstreamed": 5987,
      "Ġparalle": 5988,
      "addFirst": 5989,
      "addVertex": 5990,
      "valued": 5991,
      "valueField": 5992,
      "fromEnt": 5993,
      "Ġcontention": 5994,
      "Ġcontiguity": 5995,
      "++)`.": 5996,
      "startsWith": 5997,
      "Ġparentheses": 5998,
      "Ġendpoints": 5999,
      "ĠStore": 6000,
      "plicity": 6001,
      "Ġsoup": 6002,
      "Ġbackpres": 6003,
      "Ġconsum": 6004,
      "Ġconsistent": 6005,
      "Ġconsidered": 6006,
      "Ġ(!(": 6007,
      "Levenshtein": 6008,
      ">>&": 6009,
      ">>(": 6010,
      ">>,": 6011,
      ">>::": 6012,
      "Ġsolution": 6013,
      "Ġimplementations": 6014,
      "sureSuccess": 6015,
      "letion": 6016,
      "Ġremains": 6017,
      "Ġmutate": 6018,
      "Ġmutating": 6019,
      "Ġdistingu": 6020,
      "posing": 6021,
      "Ġplan": 6022,
      "Ġplacing": 6023,
      "Ġplaced": 6024,
      "izedFunc": 6025,
      "ĊĠĠĠĠĠĠĠĠĠĠĠĠĠĠĠĠĠĠĠĠĠĠĠĠĠĠĠĠĠĠĠ": 6026,
      "ĠAddEdge": 6027,
      "Ġwrapping": 6028,
      "Ġunions": 6029,
      "Ġsubstit": 6030,
      "Ġpeeking": 6031,
      "Ġlowest": 6032,
      "Ġ10000": 6033,
      "Ġinsertions": 6034,
      "Ġtrig": 6035,
      "Ġrecreate": 6036,
      "]]=[": 6037,
      "ĠArrayHeap": 6038,
      "ĠArrayPrinter": 6039,
      "check": 6040,
      "Ġ/^[\\": 6041,
      "Ġdictates": 6042,
      "ĠcurrentPage": 6043,
      "Ġfactorials": 6044,
      "1010": 6045,
      "1000": 6046,
      "Words": 6047,
      "creates": 6048,
      "toList": 6049,
      "toLo": 6050,
      "toMill": 6051,
      "toLowerCase": 6052,
      "ofInputStream": 6053,
      "Ġdoc": 6054,
      "Ġdog": 6055,
      "Ġ[]))": 6056,
      "Ġ[][]": 6057,
      "Ġ[]},": 6058,
      "Ġaccessing": 6059,
      "Ġbeforehand": 6060,
      "Ġbooleans": 6061,
      "Ġproduced": 6062,
      "Ġsuch": 6063,
      "Ġpivots": 6064,
      "setLevel": 6065,
      "],[-": 6066,
      "Ġtracked": 6067,
      "Ġmissed": 6068,
      "uteIf": 6069,
      "ĠToDoubleFunction": 6070,
      "Ġdefaulting": 6071,
      "strconv": 6072,
      "Ġcanal": 6073,
      "Ġcannot": 6074,
      "ĠTrimming": 6075,
      "ĠcoinCh": 6076,
      "Ġtransient": 6077,
      "Ġrequiring": 6078,
      "ĠrunQuery": 6079,
      "Ġrunaway": 6080,
      "<>());": 6081,
      "<>()).": 6082,
      "Load": 6083,
      "LoggingExample": 6084,
      "Ġaggregated": 6085,
      "apples": 6086,
      "Ġcounting": 6087,
      "urllib": 6088,
      "agged": 6089,
      "Ġprinting": 6090,
      "ĠprintSafe": 6091,
      "ĠEnsures": 6092,
      "Ġshortens": 6093,
      "Ġops": 6094,
      "\",\"...": 6095,
      "ĠCounter": 6096,
      "ĠCoerces": 6097,
      "EmptyStackException": 6098,
      "ĠKadane": 6099,
      "ĠKrus": 6100,
      "ĠfilePath": 6101,
      "Ġproperties": 6102,
      "ĠUndo": 6103,
      "Ġrecording": 6104,
      "--,": 6105,
      "Ġrepeat": 6106,
      "Ġrepeating": 6107,
      "unkHandler": 6108,
      "Ġdispatches": 6109,
      "Ġconsidering": 6110,
      "appendFile": 6111,
      "Ġdiffers": 6112,
      "ĠvalidateEmail": 6113,
      "','*']": 6114,
      "','+','": 6115,
      "Ġclean": 6116,
      "ĠprocessImage": 6117,
      "Default": 6118,
      "words": 6119,
      "Ġ99": 6120,
      "Ġnormalizing": 6121,
      "Ġequals": 6122,
      "ĠStringPer": 6123,
      "Ġaccumulation": 6124,
      "Ġaccumulates": 6125,
      "Ġtransformed": 6126,
      "Ġreadable": 6127,
      "Ġreadline": 6128,
      "Ġmeans": 6129,
      "comparing": 6130,
      "computeIf": 6131,
      "\"]`": 6132,
      "protot": 6133,
      "provided": 6134,
      "Ġambig": 6135,
      "ĠDebug": 6136,
      "ĠDeletion": 6137,
      "Ġ_:": 6138,
      "ĠTypeError": 6139,
      "=[(": 6140,
      "Ġ[['": 6141,
      "Ġpermute": 6142,
      "Ġquerying": 6143,
      "offs": 6144,
      "ĠrequiredKeys": 6145,
      "parts": 6146,
      "destEntry": 6147,
      "Ġmarked": 6148,
      "Ġsingly": 6149,
      "deleteRoot": 6150,
      "Ġmovement": 6151,
      "Ġthroughput": 6152,
      "HashTable": 6153,
      "indexing": 6154,
      "indexed": 6155,
      "Ġcapital": 6156,
      "Ġmoderate": 6157,
      "Ġmodern": 6158,
      "Ġlaunch": 6159,
      "Ġremoved": 6160,
      "ĠaggregateBy": 6161,
      "Ġhelpers": 6162,
      "FileInputStream": 6163,
      "ĠinitialDelay": 6164,
      "Ġexceeding": 6165,
      "Ġfibonacci": 6166,
      "Ġrepresented": 6167,
      "Ġgenerate": 6168,
      "Ġgenerators": 6169,
      "Ġtraverses": 6170,
      "Ġincrements": 6171,
      "ĠLock": 6172,
      "Ġefficiency": 6173,
      "Ġpreserved": 6174,
      "Ġrejected": 6175,
      "Ġadvance": 6176,
      "Ġextractor": 6177,
      "equality": 6178,
      "Ġapplication": 6179,
      "arraycopy": 6180,
      "ĠemailRx": 6181,
      "ĠemailRegex": 6182,
      "Ġholding": 6183,
      "Clone": 6184,
      "ĠfetchJson": 6185,
      "ĠfetchUs": 6186,
      "locations": 6187,
      "Ġtrapping": 6188,
      "Ġfscore": 6189,
      "rounding": 6190,
      "Ġintermedi": 6191,
      "RequestException": 6192,
      "RequestMapping": 6193,
      "ĠChanges": 6194,
      "ĠChunkHandler": 6195,
      "Validate": 6196,
      "Arguments": 6197,
      "ArgumentPar": 6198,
      "hashable": 6199,
      "splitn": 6200,
      "ĠObjectMapper": 6201,
      "ĠProduces": 6202,
      "Ġexploring": 6203,
      "Ġprefixes": 6204,
      "bytes": 6205,
      "Ġspot": 6206,
      "Ġspacing": 6207,
      "Ġversus": 6208,
      "ĠIndexOut": 6209,
      "Ġmultiples": 6210,
      "Ġprovides": 6211,
      "ĠUnionFindLRU": 6212,
      "filtering": 6213,
      "entially": 6214,
      "Ġdeletions": 6215,
      "Fields": 6216,
      "Unit": 6217,
      "Unknown": 6218,
      "Ġ{});": 6219,
      "chunkSize": 6220,
      "Ġexponentiation": 6221,
      "ĠCircularSegmentTree": 6222,
      "Ġalphanumeric": 6223,
      "connect": 6224,
      "ĠMinComp": 6225,
      "ĠResult": 6226,
      "},{-": 6227,
      "Ġmultiplicity": 6228,
      "ĠLogical": 6229,
      "ĠLogStats": 6230,
      "statusCode": 6231,
      "AsDouble": 6232,
      "Dictionary": 6233,
      "Ġ8000": 6234,
      "Ġ8080": 6235,
      "Ġsquares": 6236,
      "Ġserialization": 6237,
      "Ġreconstruction": 6238,
      "ĠevalPost": 6239,
      "Ġlikel": 6240,
      "ĠPriorityQueueWithUnion": 6241,
      "ĠNormalizes": 6242,
      "Ġiterables": 6243,
      "),(-": 6244,
      "ameters": 6245,
      "Ġcombine": 6246,
      "Ġcombination": 6247,
      "Ġguarantees": 6248,
      "Ġwalkability": 6249,
      "OfBounds": 6250,
      "OfTwo": 6251,
      "filePath": 6252,
      "ransform": 6253,
      "Ġsurrounding": 6254,
      "ĠsameRange": 6255,
      "dequeuing": 6256,
      "ĠmsgParts": 6257,
      "Ġallocating": 6258,
      "Ġcomputed": 6259,
      "Ġcollide": 6260,
      "Ġsuccessful": 6261,
      "ĠComputes": 6262,
      "(`^[\\": 6263,
      "ToDoubleFunction": 6264,
      "inputPath": 6265,
      "Ġcloses": 6266,
      "Ġdelays": 6267,
      "Ġparameterize": 6268,
      "Ġextends": 6269,
      "Ġplaceh": 6270,
      "ResultSet": 6271,
      "ĠreconstructPath": 6272,
      "ĠNormalizeObjects": 6273,
      ",}$/": 6274,
      ",}$`)": 6275,
      "JsonNode": 6276,
      "OrderedDict": 6277,
      "Seconds": 6278,
      "fills": 6279,
      "Ġ...})": 6280,
      "Ġrealigned": 6281,
      "Ġreallocations": 6282,
      "Ġanchors": 6283,
      "ĠTranspose": 6284,
      "ĠAggregates": 6285,
      "Ġseparators": 6286,
      "Ġseparately": 6287,
      "ĠBuckets": 6288,
      "copied": 6289,
      "highWaterMark": 6290,
      "large": 6291,
      "whitespace": 6292,
      "ĠlongestCommonSubstring": 6293,
      "unsupported": 6294,
      "Ġconfigs": 6295,
      "()->'": 6296,
      "Ġlocal": 6297,
      "Ġlocale": 6298,
      "ĠClient": 6299,
      "ĠClassic": 6300,
      "ĠHelper": 6301,
      "Statement": 6302,
      "ĠBounds": 6303,
      "Ġpredecessor": 6304,
      "ĠStreams": 6305,
      "Ġ`<=`": 6306,
      "ĠThreadSafeDSU": 6307,
      "PageSize": 6308,
      "Ġsupplied": 6309,
      "Ġreverses": 6310,
      "Ġreversed": 6311,
      "Ġmany": 6312,
      "Ġmanages": 6313,
      "Ġ`[\"": 6314,
      "Ġdeserialization": 6315,
      "ĠParameters": 6316,
      "Ġpropagates": 6317,
      "ĠMemoizer": 6318,
      "ĠMemoizedFunc": 6319,
      "Ġsifts": 6320,
      "ĠsiftUp": 6321,
      "ĠsiftDown": 6322,
      "msgParts": 6323,
      "ĠConcurrentUnionFind": 6324,
      "ĠConcurrentMinPQ": 6325,
      "ĠHttpRequestException": 6326,
      "ĠTransformObjects": 6327,
      "ĠTransformFn": 6328,
      "BodyPub": 6329,
      "lruKey": 6330,
      "succ": 6331,
      "Ġtuples": 6332,
      "Ġrecursed": 6333,
      "Ġrecompute": 6334,
      "Ġrecompilation": 6335,
      "ĠbubbleUp": 6336,
      "ĠbubbleDown": 6337,
      "ickSort": 6338,
      "Ġvariance": 6339,
      "ĠSafeCycle": 6340,
      "ĠSafePrinter": 6341,
      "Ġdecrement": 6342,
      "Ġgroups": 6343,
      "Ġbecome": 6344,
      "Ġaddressing": 6345,
      "Ġdependenc": 6346,
      "compiles": 6347,
      "Ġappropriately": 6348,
      "Ġrobustness": 6349,
      "Ġidentical": 6350,
      "Ġidentifiers": 6351,
      "ĠBoundedQueue": 6352,
      "ĠBoundedMinPQ": 6353,
      "FormatInt": 6354,
      "BigInteger": 6355,
      "BigUint": 6356,
      "LinkedQueue": 6357,
      "bigint": 6358,
      "blocking": 6359,
      "cells": 6360,
      "Ġcells": 6361,
      "Ġsilence": 6362,
      "Ġschedul": 6363,
      "Ġblank": 6364,
      "Ġmoves": 6365,
      "Ġstricter": 6366,
      "Ġlibraries": 6367,
      "ĠSimpleHashTable": 6368,
      "Ġdestination": 6369,
      "ĠFilters": 6370,
      "ĠAttempts": 6371,
      "ĠLongestCommonSubstring": 6372,
      "ĠPaginator": 6373,
      "ĠCorrects": 6374,
      "ĠHeuristic": 6375,
      "Ġshape": 6376,
      "Ġ'/':": 6377,
      "Ġ'/'].": 6378,
      "Ġprecompute": 6379,
      "Ġprecomputing": 6380,
      "ĠInsertion": 6381,
      ">>>>>>>>": 6382,
      "Ġgenerics": 6383,
      "Ġrisked": 6384,
      "Ġcollapses": 6385,
      "ĠflattenNested": 6386,
      "Ġsatisfying": 6387,
      "Ġinvokes": 6388,
      "Ġoccurrences": 6389,
      "ĠDisjointSet": 6390,
      "Ġdrops": 6391,
      "GetMapping": 6392,
      "Iterable": 6393,
      "Ġtemporary": 6394,
      "Ġfolds": 6395,
      "Ġblocking": 6396,
      "ĠlruKey": 6397,
      "Ġconcerns": 6398,
      "Ġtruncate": 6399,
      "ĠChecks": 6400,
      "ĠEvictingCircularBuffer": 6401,
      "Ġ'*',": 6402,
      "Ġ'*':": 6403,
      "Ġ'-',": 6404,
      "Ġ'-':": 6405,
      "ĠgetMinEdge": 6406,
      "ĠGetWithBackoffAsync": 6407,
      "Ġdoubly": 6408,
      "Ġsimplicity": 6409,
      "siftUp": 6410,
      "siftDown": 6411,
      "localhost": 6412,
      "Content": 6413,
      "ConcurrentLinkedQueue": 6414,
      "Ġlimiting": 6415,
      "Ġsurprising": 6416,
      "Ġconcatenations": 6417,
      "+/);": 6418,
      "AllString": 6419,
      "Absent": 6420,
      "Summary": 6421,
      "TotalPages": 6422,
      "[...,": 6423,
      "srcPath": 6424,
      "Ġsimilar": 6425,
      "Ġfrequency": 6426,
      "Ġignore": 6427,
      "Ġreporting": 6428,
      "Ġrehashing": 6429,
      "Ġoptimize": 6430,
      "isspace": 6431,
      "ĠSubstring": 6432,
      "Ġsecondary": 6433,
      "ĠJsonNode": 6434,
      "ĠJsonSerializer": 6435,
      "Ġ\"-\")": 6436,
      "Ġunique": 6437,
      "Ġuniform": 6438,
      "ĠCliArgs": 6439,
      "ĠCliTool": 6440,
      "Ġalternatively": 6441,
      "Ġenqueues": 6442,
      "Ġenqueuing": 6443,
      "Ġextremes": 6444,
      "Ġextremely": 6445,
      "postgres": 6446,
      "ĠclearTimeout": 6447,
      "Ordering": 6448,
      "<?>`": 6449,
      "Ġdereferencing": 6450,
      "($(": 6451,
      "(',');": 6452,
      "Deserialize": 6453,
      "NonNegative": 6454,
      "ScheduledExecutorService": 6455,
      "aware": 6456,
      "boxed": 6457,
      "guard": 6458,
      "shutdown": 6459,
      "Ġqueens": 6460,
      "ĠQuickSort": 6461,
      "inished": 6462,
      "Ġaffects": 6463,
      "Ġcasts": 6464,
      "Ġrethrows": 6465,
      "Ġrebuilding": 6466,
      "Ġincorrect": 6467,
      "Ġbalancing": 6468,
      "ĠTopoSort": 6469,
      "Ġ`#`": 6470,
      "ĠFastQueue": 6471,
      "ĠLCM": 6472,
      "ĠPrecompiles": 6473,
      "ĠPrints": 6474,
      "ĠPrevious": 6475,
      "ĠPartialEq": 6476,
      "ĠReadStream": 6477,
      "Ġaliases": 6478,
      "ĠMaximum": 6479,
      "defaultdict": 6480,
      "Ġ'+':": 6481,
      "ĠBigInteger": 6482,
      "ĠRangeUnionFind": 6483,
      "ĠCombine": 6484,
      "ĠExpand": 6485,
      "Ġcapture": 6486,
      "Ġinterpretation": 6487,
      "Ġmultiplying": 6488,
      "ĠCompiles": 6489,
      "Ġinvocations": 6490,
      "ĠConsoleHandler": 6491,
      "ĠriskyOperation": 6492,
      "Ġtechniques": 6493,
      "Ġfollows": 6494,
      "ĠDecimalToBinary": 6495,
      "Ġcandidates": 6496,
      "Ġpseudocode": 6497,
      "Ġmirrors": 6498,
      "\"],[\"": 6499,
      "2247": 6500,
      "AMPLE": 6501,
      "Boolean": 6502,
      "Cleanup": 6503,
      "EXAMPLE": 6504,
      "EldestEntry": 6505,
      "EnsureSuccess": 6506,
      "IReadOn": 6507,
      "Normalize": 6508,
      "PATTER": 6509,
      "RwLock": 6510,
      "RaceCar": 6511,
      "Thread": 6512,
      "cision": 6513,
      "flat": 6514,
      "lishers": 6515,
      "mimics": 6516,
      "optimize": 6517,
      "scheduleAtFixedRate": 6518,
      "titles": 6519,
      "uched": 6520,
      "required": 6521,
      "rehashes": 6522,
      "records": 6523,
      "Ġtrade": 6524,
      "Ġtemplates": 6525,
      "Ġpackages": 6526,
      "Ġpersistent": 6527,
      "Ġpadding": 6528,
      "Ġpicocli": 6529,
      "Ġnames": 6530,
      "Ġreusable": 6531,
      "Ġindefinitely": 6532,
      "Ġinequalities": 6533,
      "Ġinspection": 6534,
      "Ġinherently": 6535,
      "Ġwritable": 6536,
      "applyAsDouble": 6537,
      "Ġtheoret": 6538,
      "Ġ(['+',": 6539,
      "Ġothers": 6540,
      "ĠTighten": 6541,
      "ĠTotalPages": 6542,
      "ĠSplitting": 6543,
      "Ġdirectionality": 6544,
      "Ġ`==`;": 6545,
      "Ġconcrete": 6546,
      "Ġcontributions": 6547,
      "Ġdebugging": 6548,
      "Ġcoordinate": 6549,
      "Ġgrapheme": 6550,
      "ĠonChunk": 6551,
      "ĠASCII": 6552,
      "ReplaceAllString": 6553,
      "Ġsequentially": 6554,
      "keyBytes": 6555,
      "Ġpooled": 6556,
      "ĠPrefer": 6557,
      "ĠPanama": 6558,
      "getOrDefault": 6559,
      "Ġexternally": 6560,
      "Ġunchecked": 6561,
      "Ġuntouched": 6562,
      "ĠCorrected": 6563,
      "ĠEmailValidator": 6564,
      "ĠRepresents": 6565,
      "ĠNeighbors": 6566,
      "Ġprotocols": 6567,
      "ĠMedianOfTwo": 6568,
      "ĠMAPPER": 6569,
      "Ġatomic": 6570,
      "Ġleftovers": 6571,
      "execute": 6572,
      "ĠInterruptedException": 6573,
      "ĠnonAlnum": 6574,
      "Ġparallel": 6575,
      "fromEntries": 6576,
      "Ġbackpressure": 6577,
      "Ġsubstitution": 6578,
      "toLocale": 6579,
      "toMillis": 6580,
      "ĠcoinChange": 6581,
      "ĠKruskal": 6582,
      "ĠStringPermutations": 6583,
      "comparingInt": 6584,
      "computeIfAbsent": 6585,
      "prototype": 6586,
      "Ġcapitalizing": 6587,
      "ĠaggregateByKey": 6588,
      "ĠfetchUsers": 6589,
      "Ġintermediate": 6590,
      "ArgumentParser": 6591,
      "ĠIndexOutOfBounds": 6592,
      "ĠevalPostfix": 6593,
      "Ġlikelihood": 6594,
      "BodyPublishers": 6595,
      "Ġdependencies": 6596,
      "Ġscheduling": 6597,
      "EnsureSuccessStatusCode": 6598,
      "IReadOnlyList": 6599,
      "PATTERN": 6600,
      "ĠMedianOfTwoSortedArrays": 6601,
      "ĠIndexOutOfBoundsException": 6602
    },
    "merges": [
      [
        "Ġ",
        "Ġ"
      ],
      [
        "ĠĠ",
        "ĠĠ"
      ],
      [
        "i",
        "n"
      ],
      [
        "ĠĠ",
        "Ġ"
      ],
      [
        "r",
        "e"
      ],
      [
        "o",
        "n"
      ],
      [
        "Ġ",
        "a"
      ],
      [
        "Ġ",
        "t"
      ],
      [
        "o",
        "r"
      ],
      [
        "s",
        "t"
      ],
      [
        "l",
        "e"
      ],
      [
        "e",
        "r"
      ],
      [
        "*",
        "*"
      ],
      [
        "a",
        "t"
      ],
      [
        "i",
        "t"
      ],
      [
        "Ċ",
        "ĠĠĠĠ"
      ],
      [
        "h",
        "e"
      ],
      [
        "Ġ",
        "c"
      ],
      [
        "Ġ",
        "s"
      ],
      [
        "Ġ",
        "="
      ],
      [
        "Ġ",
        "p"
      ],
      [
        "Ġ",
        "f"
      ],
      [
        "a",
        "l"
      ],
      [
        "d",
        "e"
      ],
      [
        "Ġ",
        "n"
      ],
      [
        "u",
        "t"
      ],
      [
        "Ġ",
        "i"
      ],
      [
        "Ċ",
        "ĠĠĠ"
      ],
      [
        "e",
        "s"
      ],
      [
        "i",
        "on"
      ],
      [
        "Ġ",
        "re"
      ],
      [
        "m",
        "p"
      ],
      [
        "a",
        "r"
      ],
      [
        "a",
        "c"
      ],
      [
        "Ġ",
        "in"
      ],
      [
        "ĊĠĠĠĠ",
        "ĠĠĠ"
      ],
      [
        "e",
        "n"
      ],
      [
        "in",
        "g"
      ],
      [
        "`",
        "`"
      ],
      [
        ":",
        "**"
      ],
      [
        "a",
        "n"
      ],
      [
        "Ġ",
        "{"
      ],
      [
        "u",
        "r"
      ],
      [
        "Ġ",
        "b"
      ],
      [
        "Ġ",
        "w"
      ],
      [
        ")",
        ";"
      ],
      [
        "a",
        "p"
      ],
      [
        "Ġ",
        "m"
      ],
      [
        "Ġt",
        "he"
      ],
      [
        "Ġ",
        "("
      ],
      [
        "s",
        "e"
      ],
      [
        "u",
        "e"
      ],
      [
        "r",
        "i"
      ],
      [
        "Ġ",
        "e"
      ],
      [
        "i",
        "c"
      ],
      [
        "Ġ",
        "st"
      ],
      [
        "Ġ",
        "l"
      ],
      [
        "mp",
        "le"
      ],
      [
        "Ġ",
        "}"
      ],
      [
        "u",
        "n"
      ],
      [
        "g",
        "e"
      ],
      [
        "Ġ",
        "O"
      ],
      [
        "Ġa",
        "n"
      ],
      [
        "p",
        "ut"
      ],
      [
        "ur",
        "n"
      ],
      [
        "t",
        "urn"
      ],
      [
        "r",
        "o"
      ],
      [
        "Ġi",
        "f"
      ],
      [
        "e",
        "d"
      ],
      [
        "Ġ",
        "v"
      ],
      [
        "Ġ",
        "o"
      ],
      [
        "t",
        "h"
      ],
      [
        "Ġt",
        "o"
      ],
      [
        "c",
        "t"
      ],
      [
        "E",
        "x"
      ],
      [
        "ĊĠĠĠĠ",
        "ĠĠĠĠ"
      ],
      [
        "Ġf",
        "or"
      ],
      [
        "Ġre",
        "turn"
      ],
      [
        "Ġ",
        "T"
      ],
      [
        "it",
        "y"
      ],
      [
        "en",
        "t"
      ],
      [
        "u",
        "m"
      ],
      [
        "o",
        "de"
      ],
      [
        "``",
        "`"
      ],
      [
        "Ġan",
        "d"
      ],
      [
        "o",
        "t"
      ],
      [
        "i",
        "s"
      ],
      [
        "at",
        "ion"
      ],
      [
        "e",
        "l"
      ],
      [
        "a",
        "v"
      ],
      [
        "i",
        "st"
      ],
      [
        "u",
        "l"
      ],
      [
        "Ġ",
        "S"
      ],
      [
        "i",
        "z"
      ],
      [
        "p",
        "l"
      ],
      [
        "i",
        "m"
      ],
      [
        "Ġ",
        "1"
      ],
      [
        "Ġt",
        "h"
      ],
      [
        "Ġ",
        "d"
      ],
      [
        "a",
        "d"
      ],
      [
        "Ġ",
        "`"
      ],
      [
        "g",
        "h"
      ],
      [
        "ĊĠĠĠĠĠĠĠĠ",
        "ĠĠĠ"
      ],
      [
        "i",
        "d"
      ],
      [
        "in",
        "t"
      ],
      [
        "or",
        "t"
      ],
      [
        "a",
        "s"
      ],
      [
        "it",
        "h"
      ],
      [
        "Ġn",
        "e"
      ],
      [
        "Ċ",
        "Ġ"
      ],
      [
        "Ġ",
        "-"
      ],
      [
        "r",
        "a"
      ],
      [
        "I",
        "n"
      ],
      [
        "Ġ",
        "0"
      ],
      [
        "ac",
        "e"
      ],
      [
        "Ġ",
        "le"
      ],
      [
        "Ġin",
        "t"
      ],
      [
        "u",
        "s"
      ],
      [
        "Ġc",
        "on"
      ],
      [
        "p",
        "t"
      ],
      [
        "Ġ",
        "de"
      ],
      [
        "i",
        "l"
      ],
      [
        "v",
        "e"
      ],
      [
        "c",
        "h"
      ],
      [
        "Ġw",
        "ith"
      ],
      [
        "iz",
        "e"
      ],
      [
        "k",
        "e"
      ],
      [
        "Ġv",
        "al"
      ],
      [
        "im",
        "e"
      ],
      [
        "(",
        ")"
      ],
      [
        "l",
        "o"
      ],
      [
        "at",
        "e"
      ],
      [
        "m",
        "ent"
      ],
      [
        "u",
        "b"
      ],
      [
        "Ġc",
        "o"
      ],
      [
        "Ġ",
        "<"
      ],
      [
        "p",
        "ace"
      ],
      [
        "or",
        "d"
      ],
      [
        "C",
        "o"
      ],
      [
        "Ġ",
        "+"
      ],
      [
        "av",
        "a"
      ],
      [
        "ac",
        "k"
      ],
      [
        "Ġ",
        "g"
      ],
      [
        "gh",
        "t"
      ],
      [
        "Ġ",
        "["
      ],
      [
        "Ġ",
        "r"
      ],
      [
        "a",
        "mple"
      ],
      [
        "c",
        "e"
      ],
      [
        "ut",
        "put"
      ],
      [
        "N",
        "ot"
      ],
      [
        "Ġa",
        "r"
      ],
      [
        "Ex",
        "pl"
      ],
      [
        "In",
        "put"
      ],
      [
        "t",
        "er"
      ],
      [
        "mple",
        "x"
      ],
      [
        "mplex",
        "ity"
      ],
      [
        "el",
        "f"
      ],
      [
        "ar",
        "t"
      ],
      [
        "Ex",
        "ample"
      ],
      [
        "ĠT",
        "ime"
      ],
      [
        "Ġ",
        "he"
      ],
      [
        "a",
        "x"
      ],
      [
        "Ġ",
        "it"
      ],
      [
        "ĠS",
        "pace"
      ],
      [
        "O",
        "utput"
      ],
      [
        "an",
        "ation"
      ],
      [
        "Co",
        "mplexity"
      ],
      [
        "Not",
        "es"
      ],
      [
        "Expl",
        "anation"
      ],
      [
        "Ġ",
        "h"
      ],
      [
        "Ġo",
        "f"
      ],
      [
        "at",
        "a"
      ],
      [
        ")",
        "."
      ],
      [
        "Ġs",
        "elf"
      ],
      [
        "q",
        "ue"
      ],
      [
        "ct",
        "ion"
      ],
      [
        "Ġ",
        "F"
      ],
      [
        "Ġl",
        "o"
      ],
      [
        "l",
        "ic"
      ],
      [
        "Ġ",
        "j"
      ],
      [
        "n",
        "t"
      ],
      [
        "ra",
        "y"
      ],
      [
        "Ċ",
        "ĊĠĠĠ"
      ],
      [
        "Ġ",
        "I"
      ],
      [
        "Ġ=",
        "="
      ],
      [
        "Ġ",
        "on"
      ],
      [
        "r",
        "ap"
      ],
      [
        "y",
        "th"
      ],
      [
        "yth",
        "on"
      ],
      [
        "g",
        "th"
      ],
      [
        "u",
        "p"
      ],
      [
        "Ġi",
        "s"
      ],
      [
        "r",
        "ing"
      ],
      [
        "Ġn",
        "um"
      ],
      [
        "Ġ-",
        ">"
      ],
      [
        "x",
        "t"
      ],
      [
        "n",
        "e"
      ],
      [
        "n",
        "gth"
      ],
      [
        "Ġ",
        "A"
      ],
      [
        "c",
        "ri"
      ],
      [
        "f",
        "t"
      ],
      [
        "Ġ",
        "2"
      ],
      [
        "cri",
        "pt"
      ],
      [
        "R",
        "e"
      ],
      [
        "t",
        "y"
      ],
      [
        "v",
        "er"
      ],
      [
        "Ġs",
        "e"
      ],
      [
        ":",
        ":"
      ],
      [
        "ke",
        "y"
      ],
      [
        "i",
        "le"
      ],
      [
        "q",
        "u"
      ],
      [
        "t",
        "e"
      ],
      [
        "Ġcon",
        "st"
      ],
      [
        "in",
        "d"
      ],
      [
        "en",
        "d"
      ],
      [
        "a",
        "m"
      ],
      [
        "Ġth",
        "is"
      ],
      [
        "Ġp",
        "o"
      ],
      [
        "ub",
        "lic"
      ],
      [
        "Ġ",
        "W"
      ],
      [
        "u",
        "st"
      ],
      [
        "Ġ",
        "L"
      ],
      [
        "ul",
        "l"
      ],
      [
        "Ġb",
        "e"
      ],
      [
        "k",
        "s"
      ],
      [
        "ĊĠĠĠĠĠĠĠĠ",
        "ĠĠĠĠ"
      ],
      [
        "ro",
        "w"
      ],
      [
        "Ġ",
        "P"
      ],
      [
        "Ġre",
        "s"
      ],
      [
        "ul",
        "t"
      ],
      [
        "]",
        ","
      ],
      [
        "re",
        "nt"
      ],
      [
        "v",
        "al"
      ],
      [
        "Ġ",
        "or"
      ],
      [
        "re",
        "s"
      ],
      [
        "a",
        "in"
      ],
      [
        "ro",
        "m"
      ],
      [
        "e",
        "m"
      ],
      [
        "Ġne",
        "w"
      ],
      [
        "Ġn",
        "ode"
      ],
      [
        "an",
        "d"
      ],
      [
        "]",
        ";"
      ],
      [
        "Ġt",
        "r"
      ],
      [
        "a",
        "ge"
      ],
      [
        "i",
        "ve"
      ],
      [
        "Ġb",
        "o"
      ],
      [
        "us",
        "h"
      ],
      [
        "o",
        "l"
      ],
      [
        "o",
        "id"
      ],
      [
        "Ġc",
        "h"
      ],
      [
        "Ġ",
        "J"
      ],
      [
        "a",
        "b"
      ],
      [
        "Ġ",
        "*"
      ],
      [
        "ge",
        "t"
      ],
      [
        ")",
        ")"
      ],
      [
        "que",
        "ue"
      ],
      [
        "Ġa",
        "d"
      ],
      [
        "mp",
        "ort"
      ],
      [
        "Ġl",
        "ist"
      ],
      [
        "c",
        "ur"
      ],
      [
        "Ġ",
        "\""
      ],
      [
        "i",
        "ght"
      ],
      [
        "mp",
        "ty"
      ],
      [
        "Ġe",
        "x"
      ],
      [
        "l",
        "y"
      ],
      [
        "Ġ",
        "un"
      ],
      [
        "le",
        "ngth"
      ],
      [
        "r",
        "or"
      ],
      [
        "(",
        ");"
      ],
      [
        "re",
        "e"
      ],
      [
        "Ġar",
        "ray"
      ],
      [
        "/",
        "/"
      ],
      [
        "Ġb",
        "u"
      ],
      [
        "ri",
        "ght"
      ],
      [
        "ord",
        "er"
      ],
      [
        "ĊĠĠĠĠ",
        "Ġ"
      ],
      [
        "mple",
        "ment"
      ],
      [
        "d",
        "ata"
      ],
      [
        "Ġa",
        "s"
      ],
      [
        "Ġc",
        "ode"
      ],
      [
        "at",
        "h"
      ],
      [
        "Ġ",
        "C"
      ],
      [
        "re",
        "d"
      ],
      [
        "Ġm",
        "in"
      ],
      [
        "un",
        "ction"
      ],
      [
        "+",
        "+"
      ],
      [
        "p",
        "er"
      ],
      [
        "Ġ",
        "D"
      ],
      [
        "c",
        "es"
      ],
      [
        "p",
        "e"
      ],
      [
        "ap",
        "ac"
      ],
      [
        "Ġn",
        "ull"
      ],
      [
        "ĊĠĠĠĠĠĠĠĠĠĠĠĠ",
        "ĠĠĠ"
      ],
      [
        "apac",
        "ity"
      ],
      [
        "Ġw",
        "h"
      ],
      [
        "it",
        "ion"
      ],
      [
        "ĠF",
        "or"
      ],
      [
        "Ġ",
        "V"
      ],
      [
        "as",
        "s"
      ],
      [
        "Ġ",
        ":"
      ],
      [
        "Ġ",
        "E"
      ],
      [
        "Ġ",
        "us"
      ],
      [
        "Ġ",
        "Re"
      ],
      [
        "er",
        "s"
      ],
      [
        "ĠJ",
        "ava"
      ],
      [
        "i",
        "v"
      ],
      [
        "a",
        "st"
      ],
      [
        "Ġ",
        "N"
      ],
      [
        "(",
        "\""
      ],
      [
        "l",
        "f"
      ],
      [
        "Ġst",
        "d"
      ],
      [
        "d",
        "s"
      ],
      [
        "se",
        "lf"
      ],
      [
        "pt",
        "ion"
      ],
      [
        "Ġa",
        "l"
      ],
      [
        "Ġ",
        "u"
      ],
      [
        "c",
        "l"
      ],
      [
        "o",
        "p"
      ],
      [
        "Ġp",
        "ro"
      ],
      [
        "f",
        "f"
      ],
      [
        "r",
        "it"
      ],
      [
        "Ġ",
        "3"
      ],
      [
        "rap",
        "h"
      ],
      [
        "Ġde",
        "f"
      ],
      [
        "ab",
        "le"
      ],
      [
        "de",
        "d"
      ],
      [
        "m",
        "ax"
      ],
      [
        "an",
        "ge"
      ],
      [
        "Ġval",
        "ue"
      ],
      [
        "Ġp",
        "ublic"
      ],
      [
        "a",
        "se"
      ],
      [
        "Ġ",
        ">"
      ],
      [
        "le",
        "ment"
      ],
      [
        "Ġj",
        "ava"
      ],
      [
        "Ġ",
        "order"
      ],
      [
        "lo",
        "w"
      ],
      [
        "s",
        "er"
      ],
      [
        "Ġ",
        "key"
      ],
      [
        "i",
        "gh"
      ],
      [
        "he",
        "ap"
      ],
      [
        "Ġb",
        "y"
      ],
      [
        "]",
        ")"
      ],
      [
        "ac",
        "h"
      ],
      [
        "i",
        "mport"
      ],
      [
        "Ġnum",
        "s"
      ],
      [
        "c",
        "o"
      ],
      [
        "c",
        "on"
      ],
      [
        "av",
        "as"
      ],
      [
        "avas",
        "cript"
      ],
      [
        "Ġ",
        "U"
      ],
      [
        "Ġw",
        "he"
      ],
      [
        "Ġ",
        "M"
      ],
      [
        "Ġs",
        "ize"
      ],
      [
        "s",
        "ize"
      ],
      [
        "at",
        "ive"
      ],
      [
        "Ġe",
        "lement"
      ],
      [
        "i",
        "al"
      ],
      [
        "Ġle",
        "t"
      ],
      [
        "ĠL",
        "ist"
      ],
      [
        "e",
        "p"
      ],
      [
        "Ġ",
        "&"
      ],
      [
        "at",
        "es"
      ],
      [
        "v",
        "oid"
      ],
      [
        "ic",
        "t"
      ],
      [
        "Ġf",
        "i"
      ],
      [
        "Ġres",
        "ult"
      ],
      [
        "ar",
        "ch"
      ],
      [
        "Ġ",
        "x"
      ],
      [
        "Ġ",
        "k"
      ],
      [
        "Ġe",
        "mpty"
      ],
      [
        "f",
        "or"
      ],
      [
        "cur",
        "s"
      ],
      [
        "ser",
        "t"
      ],
      [
        "m",
        "al"
      ],
      [
        "ar",
        "y"
      ],
      [
        "Ġd",
        "ata"
      ],
      [
        "ĠI",
        "mplement"
      ],
      [
        "Ġwh",
        "ile"
      ],
      [
        "on",
        "e"
      ],
      [
        "rit",
        "e"
      ],
      [
        "\"",
        ","
      ],
      [
        "Ġa",
        "c"
      ],
      [
        "is",
        "it"
      ],
      [
        "e",
        "t"
      ],
      [
        "i",
        "g"
      ],
      [
        "Ġ",
        "er"
      ],
      [
        "Ġ",
        "H"
      ],
      [
        "Ġst",
        "ack"
      ],
      [
        "Ċ",
        "ĉ"
      ],
      [
        "r",
        "u"
      ],
      [
        "Ġp",
        "art"
      ],
      [
        "Ġf",
        "rom"
      ],
      [
        "Ġar",
        "r"
      ],
      [
        "a",
        "il"
      ],
      [
        "e",
        "ct"
      ],
      [
        "Ġa",
        "void"
      ],
      [
        "Ġst",
        "ring"
      ],
      [
        "Ġhe",
        "ap"
      ],
      [
        "ne",
        "xt"
      ],
      [
        "N",
        "ode"
      ],
      [
        "Ġa",
        "t"
      ],
      [
        "Ġc",
        "l"
      ],
      [
        "Ġs",
        "h"
      ],
      [
        "Ġm",
        "ax"
      ],
      [
        "[",
        "]"
      ],
      [
        "m",
        "in"
      ],
      [
        "Ġp",
        "ri"
      ],
      [
        "Ġf",
        "unction"
      ],
      [
        "\"",
        "\""
      ],
      [
        "a",
        "rent"
      ],
      [
        "o",
        "un"
      ],
      [
        "Ġit",
        "er"
      ],
      [
        "ĠP",
        "ython"
      ],
      [
        "Ġst",
        "art"
      ],
      [
        "Ġse",
        "arch"
      ],
      [
        "and",
        "le"
      ],
      [
        "n",
        "ode"
      ],
      [
        "Ġco",
        "mp"
      ],
      [
        "Ġnum",
        "b"
      ],
      [
        "Ġ",
        "queue"
      ],
      [
        "de",
        "f"
      ],
      [
        "Ġ<",
        "="
      ],
      [
        "Ġp",
        "er"
      ],
      [
        "Ġl",
        "ar"
      ],
      [
        "Ġlo",
        "g"
      ],
      [
        "Ġ",
        "'"
      ],
      [
        "ĠW",
        "rite"
      ],
      [
        "lo",
        "g"
      ],
      [
        "isit",
        "ed"
      ],
      [
        "Ġp",
        "ush"
      ],
      [
        "ces",
        "s"
      ],
      [
        "t",
        "ri"
      ],
      [
        "Ġin",
        "put"
      ],
      [
        "Ġin",
        "sert"
      ],
      [
        "e",
        "ded"
      ],
      [
        "j",
        "ect"
      ],
      [
        "re",
        "am"
      ],
      [
        "Ġth",
        "row"
      ],
      [
        "S",
        "t"
      ],
      [
        "a",
        "f"
      ],
      [
        "Ġ",
        "B"
      ],
      [
        "Ġre",
        "curs"
      ],
      [
        "Ġl",
        "in"
      ],
      [
        "o",
        "ut"
      ],
      [
        "ct",
        "or"
      ],
      [
        "Ġwhe",
        "n"
      ],
      [
        ")",
        ":"
      ],
      [
        "t",
        "s"
      ],
      [
        "Ġs",
        "ort"
      ],
      [
        "Ġu",
        "se"
      ],
      [
        "m",
        "m"
      ],
      [
        "p",
        "p"
      ],
      [
        "Ġ",
        "//"
      ],
      [
        "al",
        "l"
      ],
      [
        "al",
        "se"
      ],
      [
        "ation",
        "s"
      ],
      [
        "Ġ",
        "right"
      ],
      [
        "de",
        "x"
      ],
      [
        "Ġth",
        "at"
      ],
      [
        "ĠA",
        "d"
      ],
      [
        "Ġer",
        "ror"
      ],
      [
        "p",
        "ort"
      ],
      [
        "Ġ",
        "en"
      ],
      [
        "Ġst",
        "at"
      ],
      [
        "Ġval",
        "id"
      ],
      [
        "Ġg",
        "raph"
      ],
      [
        "g",
        "er"
      ],
      [
        "v",
        "ate"
      ],
      [
        "Ġf",
        "ind"
      ],
      [
        "Ġo",
        "ver"
      ],
      [
        "Ġne",
        "eded"
      ],
      [
        "Ġle",
        "ft"
      ],
      [
        "Ġp",
        "re"
      ],
      [
        "Ġe",
        "ach"
      ],
      [
        "Ġch",
        "ar"
      ],
      [
        "Ġpart",
        "ition"
      ],
      [
        "c",
        "k"
      ],
      [
        "Ġt",
        "y"
      ],
      [
        "le",
        "ft"
      ],
      [
        "c",
        "ke"
      ],
      [
        "an",
        "k"
      ],
      [
        "Ġr",
        "ange"
      ],
      [
        "F",
        "S"
      ],
      [
        "S",
        "cript"
      ],
      [
        "b",
        "or"
      ],
      [
        "igh",
        "bor"
      ],
      [
        "Ġlar",
        "ge"
      ],
      [
        ")",
        ","
      ],
      [
        "Ġad",
        "j"
      ],
      [
        "L",
        "ist"
      ],
      [
        "ac",
        "he"
      ],
      [
        "g",
        "es"
      ],
      [
        "u",
        "re"
      ],
      [
        "Ġn",
        "ot"
      ],
      [
        "p",
        "ush"
      ],
      [
        "Ġ",
        "ra"
      ],
      [
        "Ġa",
        "re"
      ],
      [
        "Ġit",
        "em"
      ],
      [
        "Ġstat",
        "ic"
      ],
      [
        "o",
        "re"
      ],
      [
        "Ġc",
        "apacity"
      ],
      [
        "ce",
        "ption"
      ],
      [
        "'",
        ","
      ],
      [
        "o",
        "w"
      ],
      [
        "Ġ",
        "qu"
      ],
      [
        "Ġhe",
        "ad"
      ],
      [
        "n",
        "um"
      ],
      [
        "r",
        "ray"
      ],
      [
        "he",
        "ad"
      ],
      [
        "ar",
        "r"
      ],
      [
        "re",
        "ad"
      ],
      [
        "i",
        "r"
      ],
      [
        "u",
        "es"
      ],
      [
        "as",
        "h"
      ],
      [
        "Ġle",
        "n"
      ],
      [
        "c",
        "le"
      ],
      [
        "p",
        "ython"
      ],
      [
        "p",
        "ublic"
      ],
      [
        "r",
        "y"
      ],
      [
        "Ġ+",
        "="
      ],
      [
        "Ġcl",
        "ass"
      ],
      [
        "Ġ",
        "get"
      ],
      [
        "Ġle",
        "ngth"
      ],
      [
        "Ġpri",
        "vate"
      ],
      [
        "(",
        "'"
      ],
      [
        "i",
        "se"
      ],
      [
        "Ġp",
        "ython"
      ],
      [
        "i",
        "re"
      ],
      [
        "Ġ",
        "up"
      ],
      [
        "in",
        "al"
      ],
      [
        "Ġhe",
        "ight"
      ],
      [
        "Ġad",
        "d"
      ],
      [
        "Ġal",
        "l"
      ],
      [
        "p",
        "op"
      ],
      [
        "Ġo",
        "ut"
      ],
      [
        "Ġpo",
        "int"
      ],
      [
        "b",
        "ject"
      ],
      [
        "Ġ",
        "!"
      ],
      [
        "ro",
        "ot"
      ],
      [
        "Ġo",
        "per"
      ],
      [
        "ve",
        "ctor"
      ],
      [
        "Ġarray",
        "s"
      ],
      [
        "e",
        "x"
      ],
      [
        "at",
        "or"
      ],
      [
        "ut",
        "il"
      ],
      [
        "ĠJava",
        "Script"
      ],
      [
        "ac",
        "t"
      ],
      [
        "Ġtr",
        "ue"
      ],
      [
        "af",
        "e"
      ],
      [
        "\"",
        ")"
      ],
      [
        "r",
        "on"
      ],
      [
        "y",
        "cle"
      ],
      [
        "at",
        "er"
      ],
      [
        "con",
        "st"
      ],
      [
        "d",
        "u"
      ],
      [
        "i",
        "es"
      ],
      [
        "t",
        "al"
      ],
      [
        "Ġt",
        "ree"
      ],
      [
        "Ġf",
        "ast"
      ],
      [
        "Ġv",
        "oid"
      ],
      [
        "Ġto",
        "tal"
      ],
      [
        "a",
        "y"
      ],
      [
        "y",
        "n"
      ],
      [
        "Ġ",
        "R"
      ],
      [
        "Ġ",
        "In"
      ],
      [
        "_",
        "["
      ],
      [
        "o",
        "le"
      ],
      [
        "o",
        "ve"
      ],
      [
        "r",
        "ror"
      ],
      [
        "Ġ",
        "|"
      ],
      [
        "or",
        "ks"
      ],
      [
        "Ġw",
        "ord"
      ],
      [
        "Ġv",
        "isited"
      ],
      [
        "el",
        "y"
      ],
      [
        "il",
        "d"
      ],
      [
        "Ġbu",
        "cke"
      ],
      [
        "ĠN",
        "one"
      ],
      [
        "c",
        "ks"
      ],
      [
        "st",
        "ring"
      ],
      [
        "mal",
        "le"
      ],
      [
        "m",
        "ap"
      ],
      [
        "p",
        "ing"
      ],
      [
        "Ġ",
        "%"
      ],
      [
        "Ġ",
        "5"
      ],
      [
        "row",
        "s"
      ],
      [
        "cl",
        "u"
      ],
      [
        "for",
        "m"
      ],
      [
        "i",
        "de"
      ],
      [
        "j",
        "ava"
      ],
      [
        "Ġc",
        "he"
      ],
      [
        "Ġc",
        "ur"
      ],
      [
        "_",
        "_"
      ],
      [
        "o",
        "m"
      ],
      [
        "Ġelement",
        "s"
      ],
      [
        "v",
        "el"
      ],
      [
        "Ġ",
        "G"
      ],
      [
        "Ġin",
        "st"
      ],
      [
        "Ġe",
        "l"
      ],
      [
        "ĠI",
        "ter"
      ],
      [
        "Ġ:",
        "="
      ],
      [
        "i",
        "f"
      ],
      [
        "Ġs",
        "um"
      ],
      [
        "Ġn",
        "on"
      ],
      [
        "ar",
        "d"
      ],
      [
        "Ġne",
        "ighbor"
      ],
      [
        "up",
        "port"
      ],
      [
        "Ġbo",
        "un"
      ],
      [
        "Ġus",
        "ing"
      ],
      [
        "ru",
        "ct"
      ],
      [
        "_",
        "."
      ],
      [
        "le",
        "n"
      ],
      [
        "Ġst",
        "ream"
      ],
      [
        "un",
        "c"
      ],
      [
        "Ġrecurs",
        "ion"
      ],
      [
        "j",
        "avascript"
      ],
      [
        "Ġp",
        "ar"
      ],
      [
        "ad",
        "d"
      ],
      [
        "Ġj",
        "avascript"
      ],
      [
        ".",
        "."
      ],
      [
        "e",
        "k"
      ],
      [
        "Ġval",
        "ues"
      ],
      [
        "val",
        "ue"
      ],
      [
        "f",
        "rom"
      ],
      [
        "re",
        "n"
      ],
      [
        "Ġf",
        "n"
      ],
      [
        "Ġe",
        "d"
      ],
      [
        "Ġcon",
        "t"
      ],
      [
        "++",
        ")"
      ],
      [
        "s",
        "es"
      ],
      [
        "turn",
        "s"
      ],
      [
        "Ġh",
        "andle"
      ],
      [
        "g",
        "s"
      ],
      [
        "Ġ",
        "y"
      ],
      [
        "Ġt",
        "ime"
      ],
      [
        "pl",
        "ace"
      ],
      [
        "am",
        "e"
      ],
      [
        "clu",
        "de"
      ],
      [
        "Ġ",
        "4"
      ],
      [
        "st",
        "art"
      ],
      [
        "Ġp",
        "arent"
      ],
      [
        "Ġm",
        "at"
      ],
      [
        "Ġ!",
        "="
      ],
      [
        "t",
        "t"
      ],
      [
        "Ġ",
        "end"
      ],
      [
        "Ex",
        "ception"
      ],
      [
        "Ġco",
        "l"
      ],
      [
        "`",
        "."
      ],
      [
        "e",
        "c"
      ],
      [
        "i",
        "p"
      ],
      [
        "Ġf",
        "alse"
      ],
      [
        "ĠT",
        "h"
      ],
      [
        "ĠS",
        "t"
      ],
      [
        "pl",
        "ic"
      ],
      [
        "c",
        "y"
      ],
      [
        "w",
        "o"
      ],
      [
        "Ġs",
        "o"
      ],
      [
        "cl",
        "ass"
      ],
      [
        "\"",
        ");"
      ],
      [
        "c",
        "apacity"
      ],
      [
        "in",
        "clude"
      ],
      [
        "Ġc",
        "all"
      ],
      [
        "Ġb",
        "ack"
      ],
      [
        "Ġde",
        "p"
      ],
      [
        "Ġpo",
        "p"
      ],
      [
        "tt",
        "p"
      ],
      [
        "in",
        "ary"
      ],
      [
        "Ġcon",
        "s"
      ],
      [
        "Ġ==",
        "="
      ],
      [
        "Ġel",
        "se"
      ],
      [
        "m",
        "ut"
      ],
      [
        "er",
        "y"
      ],
      [
        "Ġs",
        "malle"
      ],
      [
        "Ġp",
        "ath"
      ],
      [
        "ter",
        "n"
      ],
      [
        "r",
        "int"
      ],
      [
        "Ġc",
        "ycle"
      ],
      [
        "Ġs",
        "upport"
      ],
      [
        "Ġw",
        "ater"
      ],
      [
        "Ġm",
        "ap"
      ],
      [
        "Ġ(",
        "!"
      ],
      [
        "ĠV",
        "al"
      ],
      [
        "num",
        "s"
      ],
      [
        "Ġup",
        "d"
      ],
      [
        "L",
        "e"
      ],
      [
        "]",
        ");"
      ],
      [
        "an",
        "s"
      ],
      [
        "un",
        "t"
      ],
      [
        "Ġpo",
        "s"
      ],
      [
        "Ġ&",
        "&"
      ],
      [
        "Ġnumb",
        "er"
      ],
      [
        "e",
        "ad"
      ],
      [
        "Ġi",
        "mport"
      ],
      [
        "Ġe",
        "xt"
      ],
      [
        "Ġche",
        "cks"
      ],
      [
        ">",
        ">"
      ],
      [
        "f",
        "unction"
      ],
      [
        "Ġ",
        "ke"
      ],
      [
        "Ġs",
        "ol"
      ],
      [
        "Ġi",
        "mplement"
      ],
      [
        "Ġst",
        "ruct"
      ],
      [
        "Ġle",
        "vel"
      ],
      [
        "i",
        "x"
      ],
      [
        "s",
        "ure"
      ],
      [
        "Ġreturn",
        "s"
      ],
      [
        "ĠW",
        "orks"
      ],
      [
        "act",
        "or"
      ],
      [
        "Ġinst",
        "ead"
      ],
      [
        "Ġke",
        "ep"
      ],
      [
        "le",
        "t"
      ],
      [
        "Ġre",
        "m"
      ],
      [
        "Ġin",
        "dex"
      ],
      [
        "Ġm",
        "ut"
      ],
      [
        "th",
        "is"
      ],
      [
        "Ġitem",
        "s"
      ],
      [
        "e",
        "g"
      ],
      [
        "g",
        "g"
      ],
      [
        "or",
        "ity"
      ],
      [
        "Ġ=",
        ">"
      ],
      [
        "an",
        "t"
      ],
      [
        "()",
        ")"
      ],
      [
        "Ġon",
        "e"
      ],
      [
        "i",
        "a"
      ],
      [
        "Ġf",
        "inal"
      ],
      [
        "an",
        "ce"
      ],
      [
        "Ġm",
        "er"
      ],
      [
        "Ġth",
        "read"
      ],
      [
        "Ġd",
        "ist"
      ],
      [
        "Ġac",
        "c"
      ],
      [
        "Ġ|",
        "|"
      ],
      [
        "p",
        "o"
      ],
      [
        "Ġt",
        "wo"
      ],
      [
        "Ġp",
        "l"
      ],
      [
        "Ġp",
        "age"
      ],
      [
        "ĠRe",
        "turns"
      ],
      [
        "Ġfi",
        "x"
      ],
      [
        "]",
        "["
      ],
      [
        "Ġi",
        "d"
      ],
      [
        "iz",
        "ed"
      ],
      [
        "que",
        "st"
      ],
      [
        "ĠF",
        "ind"
      ],
      [
        "ig",
        "n"
      ],
      [
        "Le",
        "ft"
      ],
      [
        ".",
        "_"
      ],
      [
        "o",
        "k"
      ],
      [
        "ul",
        "d"
      ],
      [
        "res",
        "s"
      ],
      [
        "g",
        "ative"
      ],
      [
        "Ġnumb",
        "ers"
      ],
      [
        "St",
        "ring"
      ],
      [
        "Ġsort",
        "ed"
      ],
      [
        "Ġsol",
        "ve"
      ],
      [
        "o",
        "uld"
      ],
      [
        "at",
        "tern"
      ],
      [
        "Ġf",
        "actor"
      ],
      [
        "te",
        "ger"
      ],
      [
        "ĊĠĠĠĠĠĠĠĠĠĠĠĠ",
        "ĠĠĠĠ"
      ],
      [
        "ain",
        "s"
      ],
      [
        "ĠAd",
        "d"
      ],
      [
        "3",
        "2"
      ],
      [
        "f",
        "ind"
      ],
      [
        "st",
        "d"
      ],
      [
        "en",
        "s"
      ],
      [
        "en",
        "cy"
      ],
      [
        "Ġw",
        "e"
      ],
      [
        "Ġw",
        "rap"
      ],
      [
        "Ġo",
        "bject"
      ],
      [
        "Ġun",
        "ion"
      ],
      [
        "ption",
        "al"
      ],
      [
        "ff",
        "er"
      ],
      [
        "Ġoper",
        "ations"
      ],
      [
        "s",
        "ing"
      ],
      [
        "w",
        "ap"
      ],
      [
        "Ġs",
        "ub"
      ],
      [
        "ch",
        "ar"
      ],
      [
        "Ġg",
        "o"
      ],
      [
        "qu",
        "i"
      ],
      [
        "e",
        "ek"
      ],
      [
        "f",
        "ter"
      ],
      [
        "Ċ",
        "Ċ"
      ],
      [
        "Ġp",
        "eek"
      ],
      [
        "Ġe",
        "v"
      ],
      [
        "il",
        "ter"
      ],
      [
        "Ġlo",
        "w"
      ],
      [
        "lic",
        "e"
      ],
      [
        "Ġsh",
        "ould"
      ],
      [
        "tri",
        "es"
      ],
      [
        "ron",
        "t"
      ],
      [
        "Ġboun",
        "ds"
      ],
      [
        "Ġid",
        "x"
      ],
      [
        "E",
        "rror"
      ],
      [
        "M",
        "ax"
      ],
      [
        "Q",
        "ue"
      ],
      [
        "i",
        "ent"
      ],
      [
        "in",
        "ed"
      ],
      [
        "Ġa",
        "pp"
      ],
      [
        "le",
        "te"
      ],
      [
        "Ġs",
        "low"
      ],
      [
        "ac",
        "ter"
      ],
      [
        "Ġm",
        "ust"
      ],
      [
        "Ġthe",
        "n"
      ],
      [
        "Ġ1",
        "0"
      ],
      [
        "Ġr",
        "ank"
      ],
      [
        "Ġinsert",
        "ion"
      ],
      [
        "ow",
        "n"
      ],
      [
        "(",
        "&"
      ],
      [
        "m",
        "at"
      ],
      [
        "p",
        "on"
      ],
      [
        "Ġt",
        "ri"
      ],
      [
        "Ġre",
        "c"
      ],
      [
        "qu",
        "al"
      ],
      [
        "ĠU",
        "se"
      ],
      [
        "ĠM",
        "ath"
      ],
      [
        "Ġchar",
        "acter"
      ],
      [
        "Ġneighbor",
        "s"
      ],
      [
        "Ġmer",
        "ge"
      ],
      [
        "Que",
        "ue"
      ],
      [
        "(",
        "("
      ],
      [
        "]",
        "]"
      ],
      [
        "e",
        "st"
      ],
      [
        "p",
        "arent"
      ],
      [
        "r",
        "ue"
      ],
      [
        "Ġ",
        "?"
      ],
      [
        "ic",
        "es"
      ],
      [
        "()",
        "."
      ],
      [
        "Ġco",
        "m"
      ],
      [
        "ĠA",
        "rray"
      ],
      [
        "Ġ>",
        "="
      ],
      [
        ")",
        ");"
      ],
      [
        "a",
        "int"
      ],
      [
        "c",
        "he"
      ],
      [
        "o",
        "d"
      ],
      [
        "v",
        "es"
      ],
      [
        "Ġ",
        "/"
      ],
      [
        "Ġ",
        "ent"
      ],
      [
        "Ġa",
        "ver"
      ],
      [
        "Ġt",
        "ar"
      ],
      [
        "er",
        "ic"
      ],
      [
        "Ġc",
        "ache"
      ],
      [
        "im",
        "um"
      ],
      [
        "Ġd",
        "ict"
      ],
      [
        "Ġne",
        "xt"
      ],
      [
        "Ġint",
        "o"
      ],
      [
        "nt",
        "ry"
      ],
      [
        "Ġbo",
        "ol"
      ],
      [
        "cur",
        "rent"
      ],
      [
        "Ġcur",
        "rent"
      ],
      [
        "Ġfactor",
        "ial"
      ],
      [
        "Ġtar",
        "get"
      ],
      [
        "b",
        "u"
      ],
      [
        "r",
        "ank"
      ],
      [
        "t",
        "ree"
      ],
      [
        "u",
        "se"
      ],
      [
        "re",
        "g"
      ],
      [
        "ment",
        "s"
      ],
      [
        "ne",
        "w"
      ],
      [
        "Ġlist",
        "s"
      ],
      [
        "gg",
        "reg"
      ],
      [
        "Ġaver",
        "age"
      ],
      [
        "1",
        "0"
      ],
      [
        "W",
        "ord"
      ],
      [
        "b",
        "oun"
      ],
      [
        "c",
        "re"
      ],
      [
        "t",
        "o"
      ],
      [
        "Ġ",
        "root"
      ],
      [
        "Ġp",
        "ut"
      ],
      [
        "Ġp",
        "ub"
      ],
      [
        "Ġg",
        "iv"
      ],
      [
        "Ġh",
        "igh"
      ],
      [
        "iv",
        "ot"
      ],
      [
        "Ġed",
        "ges"
      ],
      [
        "Ġy",
        "o"
      ],
      [
        "A",
        "rray"
      ],
      [
        "a",
        "ult"
      ],
      [
        "f",
        "low"
      ],
      [
        "in",
        "e"
      ],
      [
        "er",
        "o"
      ],
      [
        "ri",
        "d"
      ],
      [
        "ad",
        "j"
      ],
      [
        "ile",
        "d"
      ],
      [
        "Ġnode",
        "s"
      ],
      [
        "Ġty",
        "ping"
      ],
      [
        "ire",
        "ction"
      ],
      [
        "]",
        ":"
      ],
      [
        "a",
        "it"
      ],
      [
        "o",
        "f"
      ],
      [
        "Ġc",
        "ase"
      ],
      [
        "ge",
        "x"
      ],
      [
        "Ġd",
        "o"
      ],
      [
        "Ġ[",
        "]"
      ],
      [
        "ĠU",
        "ses"
      ],
      [
        "Ġac",
        "cess"
      ],
      [
        "ild",
        "ren"
      ],
      [
        "Ġdep",
        "th"
      ],
      [
        "'",
        "s"
      ],
      [
        "R",
        "ight"
      ],
      [
        "f",
        "ore"
      ],
      [
        "z",
        "ero"
      ],
      [
        "or",
        "mal"
      ],
      [
        "Ġin",
        "d"
      ],
      [
        "um",
        "ent"
      ],
      [
        "Ġse",
        "t"
      ],
      [
        "Ġbe",
        "fore"
      ],
      [
        "Ġbo",
        "ole"
      ],
      [
        "Ġlin",
        "es"
      ],
      [
        "Ġra",
        "ise"
      ],
      [
        "Ġbucke",
        "ts"
      ],
      [
        "_",
        ";"
      ],
      [
        "`",
        ","
      ],
      [
        "a",
        "iled"
      ],
      [
        "l",
        "ing"
      ],
      [
        "p",
        "ri"
      ],
      [
        "Ġt",
        "ail"
      ],
      [
        "at",
        "ed"
      ],
      [
        "es",
        "s"
      ],
      [
        "ri",
        "x"
      ],
      [
        "ic",
        "al"
      ],
      [
        "ĠT",
        "he"
      ],
      [
        "Ġpro",
        "du"
      ],
      [
        "Ċĉ",
        "ĉ"
      ],
      [
        "Ġen",
        "queue"
      ],
      [
        "Ġgiv",
        "en"
      ],
      [
        "g",
        "ument"
      ],
      [
        "l",
        "ist"
      ],
      [
        "re",
        "turn"
      ],
      [
        "it",
        "em"
      ],
      [
        "Ġs",
        "u"
      ],
      [
        "Ġp",
        "ivot"
      ],
      [
        "se",
        "d"
      ],
      [
        "se",
        "t"
      ],
      [
        "Ġst",
        "r"
      ],
      [
        "ed",
        "i"
      ],
      [
        "],",
        "["
      ],
      [
        "Ġtr",
        "ack"
      ],
      [
        "Ġadj",
        "ust"
      ],
      [
        "Ġboole",
        "an"
      ],
      [
        "]",
        "."
      ],
      [
        "r",
        "st"
      ],
      [
        "s",
        "s"
      ],
      [
        "s",
        "afe"
      ],
      [
        "Ġ",
        "zero"
      ],
      [
        "Ġa",
        "fter"
      ],
      [
        "Ġm",
        "is"
      ],
      [
        "ct",
        "ed"
      ],
      [
        "ain",
        "ing"
      ],
      [
        "Ġpre",
        "f"
      ],
      [
        "p",
        "es"
      ],
      [
        "on",
        "g"
      ],
      [
        "ut",
        "e"
      ],
      [
        "ac",
        "ency"
      ],
      [
        "Ġm",
        "em"
      ],
      [
        "ĠT",
        "o"
      ],
      [
        "um",
        "ul"
      ],
      [
        "lo",
        "ck"
      ],
      [
        "Ġdef",
        "ault"
      ],
      [
        "ĠB",
        "FS"
      ],
      [
        "Ġlin",
        "e"
      ],
      [
        "Ġchar",
        "s"
      ],
      [
        "Ġsupport",
        "ing"
      ],
      [
        "st",
        "r"
      ],
      [
        "Ġc",
        "an"
      ],
      [
        "Ġs",
        "i"
      ],
      [
        "Ġst",
        "ep"
      ],
      [
        "Ġv",
        "ia"
      ],
      [
        "ĠT",
        "ri"
      ],
      [
        "Ġwith",
        "out"
      ],
      [
        "Ġco",
        "in"
      ],
      [
        "Ġg",
        "u"
      ],
      [
        "Ġon",
        "ly"
      ],
      [
        "Ġtr",
        "ans"
      ],
      [
        "Ġbo",
        "th"
      ],
      [
        "Ġ\"",
        "\"\""
      ],
      [
        "ĠD",
        "FS"
      ],
      [
        "iv",
        "ely"
      ],
      [
        "\"\"",
        "\""
      ],
      [
        "ĠAd",
        "j"
      ],
      [
        "ok",
        "up"
      ],
      [
        "ress",
        "ion"
      ],
      [
        "a",
        "ges"
      ],
      [
        "f",
        "unc"
      ],
      [
        "in",
        "it"
      ],
      [
        "Ġre",
        "qui"
      ],
      [
        "Ġr",
        "un"
      ],
      [
        "Ġwhe",
        "re"
      ],
      [
        "Ġheap",
        "q"
      ],
      [
        "yn",
        "c"
      ],
      [
        "Ġbucke",
        "t"
      ],
      [
        "ĠVal",
        "id"
      ],
      [
        ".",
        "\"\"\""
      ],
      [
        "<",
        ">"
      ],
      [
        "L",
        "o"
      ],
      [
        "S",
        "ize"
      ],
      [
        "f",
        "s"
      ],
      [
        "Ġa",
        "ggreg"
      ],
      [
        "le",
        "ction"
      ],
      [
        "Ġs",
        "c"
      ],
      [
        "Ġw",
        "or"
      ],
      [
        "ap",
        "p"
      ],
      [
        "th",
        "er"
      ],
      [
        "id",
        "er"
      ],
      [
        "Ġco",
        "unt"
      ],
      [
        "te",
        "mp"
      ],
      [
        "ĠD",
        "es"
      ],
      [
        "Ġkey",
        "s"
      ],
      [
        "Ġfi",
        "rst"
      ],
      [
        "et",
        "ch"
      ],
      [
        "Ġadj",
        "acency"
      ],
      [
        "ĊĠĠĠĠĠĠĠĠĠĠĠĠĠĠĠĠ",
        "ĠĠĠ"
      ],
      [
        "Ġwe",
        "ight"
      ],
      [
        "irection",
        "al"
      ],
      [
        "Ġind",
        "ices"
      ],
      [
        "T",
        "he"
      ],
      [
        "a",
        "re"
      ],
      [
        "b",
        "ack"
      ],
      [
        "p",
        "ar"
      ],
      [
        "r",
        "ack"
      ],
      [
        "y",
        "pe"
      ],
      [
        "Ġ",
        "__"
      ],
      [
        "ur",
        "l"
      ],
      [
        "Ġb",
        "inary"
      ],
      [
        "In",
        "teger"
      ],
      [
        "ne",
        "gative"
      ],
      [
        "ĠJ",
        "S"
      ],
      [
        "Ġbu",
        "g"
      ],
      [
        "Ġmin",
        "Right"
      ],
      [
        "++",
        ";"
      ],
      [
        "Ġus",
        "ize"
      ],
      [
        "Ġgraph",
        "s"
      ],
      [
        "Ġover",
        "flow"
      ],
      [
        "Ġpre",
        "v"
      ],
      [
        "Ġlarge",
        "st"
      ],
      [
        "ĠAdj",
        "ust"
      ],
      [
        "-",
        ">"
      ],
      [
        "O",
        "N"
      ],
      [
        "a",
        "g"
      ],
      [
        "e",
        "mpty"
      ],
      [
        "k",
        "ed"
      ],
      [
        "p",
        "ub"
      ],
      [
        "w",
        "ait"
      ],
      [
        "}",
        ","
      ],
      [
        "at",
        "ch"
      ],
      [
        "Ġp",
        "rint"
      ],
      [
        "Ġb",
        "ase"
      ],
      [
        "el",
        "d"
      ],
      [
        "id",
        "irectional"
      ],
      [
        "ce",
        "pt"
      ],
      [
        "ĠE",
        "n"
      ],
      [
        "Ġsh",
        "ort"
      ],
      [
        "Ġcomp",
        "ar"
      ],
      [
        "Ġqu",
        "ic"
      ],
      [
        "__",
        "("
      ],
      [
        "ĠDes",
        "ign"
      ],
      [
        "'",
        ");"
      ],
      [
        "b",
        "d"
      ],
      [
        "b",
        "le"
      ],
      [
        "h",
        "av"
      ],
      [
        "i",
        "or"
      ],
      [
        "m",
        "ove"
      ],
      [
        "t",
        "ailed"
      ],
      [
        "Ċ",
        "ĊĠ"
      ],
      [
        "Ġ",
        "#"
      ],
      [
        "Ġ",
        "6"
      ],
      [
        "Ġo",
        "p"
      ],
      [
        "id",
        "x"
      ],
      [
        "Ġde",
        "tailed"
      ],
      [
        "Ġh",
        "i"
      ],
      [
        "am",
        "bd"
      ],
      [
        "ĠRe",
        "place"
      ],
      [
        "co",
        "m"
      ],
      [
        "\",",
        "\""
      ],
      [
        "Ġerror",
        "s"
      ],
      [
        "Ġsmalle",
        "st"
      ],
      [
        "Ġcom",
        "ments"
      ],
      [
        "0",
        "1"
      ],
      [
        "c",
        "ase"
      ],
      [
        "Ġ",
        "Co"
      ],
      [
        "re",
        "ate"
      ],
      [
        "Ġs",
        "pace"
      ],
      [
        "Ġth",
        "an"
      ],
      [
        "il",
        "l"
      ],
      [
        "()",
        ","
      ],
      [
        "Ġlo",
        "op"
      ],
      [
        "Ġbe",
        "hav"
      ],
      [
        "Ġex",
        "ist"
      ],
      [
        "Ġresult",
        "s"
      ],
      [
        "Ġiter",
        "ative"
      ],
      [
        "mm",
        "ed"
      ],
      [
        "Ġpoint",
        "er"
      ],
      [
        "Ġev",
        "ict"
      ],
      [
        "pon",
        "se"
      ],
      [
        "ambd",
        "a"
      ],
      [
        "Ġbehav",
        "ior"
      ],
      [
        "E",
        "mpty"
      ],
      [
        "E",
        "ntry"
      ],
      [
        "g",
        "ing"
      ],
      [
        "m",
        "s"
      ],
      [
        "s",
        "on"
      ],
      [
        "u",
        "plic"
      ],
      [
        "Ġ",
        "K"
      ],
      [
        "Ġ",
        "q"
      ],
      [
        "or",
        "re"
      ],
      [
        "Ġf",
        "ile"
      ],
      [
        "Ġf",
        "ilter"
      ],
      [
        "Ġre",
        "quest"
      ],
      [
        "Ġreturn",
        "ing"
      ],
      [
        "iz",
        "ation"
      ],
      [
        "ch",
        "ron"
      ],
      [
        "Ġg",
        "rid"
      ],
      [
        "Ġh",
        "al"
      ],
      [
        "Ġh",
        "and"
      ],
      [
        "Ġlo",
        "okup"
      ],
      [
        "ver",
        "se"
      ],
      [
        "Ġpro",
        "per"
      ],
      [
        "ĠU",
        "n"
      ],
      [
        "ĠH",
        "andle"
      ],
      [
        "Ġinput",
        "s"
      ],
      [
        "yn",
        "chron"
      ],
      [
        "Ġupd",
        "ates"
      ],
      [
        "Ġrec",
        "ord"
      ],
      [
        "Ġcharacter",
        "s"
      ],
      [
        "ĠValid",
        "ate"
      ],
      [
        "ĠJS",
        "ON"
      ],
      [
        "Ġhand",
        "ling"
      ],
      [
        "'",
        ";"
      ],
      [
        "-",
        "-"
      ],
      [
        "M",
        "ap"
      ],
      [
        "a",
        "k"
      ],
      [
        "a",
        "mp"
      ],
      [
        "f",
        "in"
      ],
      [
        "g",
        "o"
      ],
      [
        "s",
        "i"
      ],
      [
        "Ġ",
        "Ex"
      ],
      [
        "le",
        "ct"
      ],
      [
        "Ġre",
        "pe"
      ],
      [
        "Ġre",
        "gex"
      ],
      [
        "Ġm",
        "ay"
      ],
      [
        "un",
        "k"
      ],
      [
        "Ġo",
        "l"
      ],
      [
        "Ġd",
        "p"
      ],
      [
        "Ġd",
        "is"
      ],
      [
        "ĠI",
        "f"
      ],
      [
        "val",
        "id"
      ],
      [
        "Ġtr",
        "y"
      ],
      [
        "Ġcons",
        "ider"
      ],
      [
        "char",
        "s"
      ],
      [
        "app",
        "end"
      ],
      [
        "'",
        ")"
      ],
      [
        "S",
        "T"
      ],
      [
        "g",
        "raph"
      ],
      [
        "v",
        "isited"
      ],
      [
        "Ġ",
        "rows"
      ],
      [
        "er",
        "ies"
      ],
      [
        "Ġs",
        "k"
      ],
      [
        "Ġf",
        "ull"
      ],
      [
        "en",
        "ce"
      ],
      [
        "Ġb",
        "idirectional"
      ],
      [
        "Ġm",
        "ain"
      ],
      [
        "ri",
        "es"
      ],
      [
        "Ġd",
        "i"
      ],
      [
        "ith",
        "m"
      ],
      [
        "Ġit",
        "s"
      ],
      [
        "ĠE",
        "rror"
      ],
      [
        "oun",
        "t"
      ],
      [
        "def",
        "ined"
      ],
      [
        "Ġpartition",
        "A"
      ],
      [
        "Ġpoint",
        "ers"
      ],
      [
        "Ġmat",
        "rix"
      ],
      [
        "ess",
        "age"
      ],
      [
        "edi",
        "an"
      ],
      [
        "ĠEn",
        "sure"
      ],
      [
        "orre",
        "ct"
      ],
      [
        "N",
        "F"
      ],
      [
        "c",
        "pp"
      ],
      [
        "d",
        "er"
      ],
      [
        "h",
        "ttp"
      ],
      [
        "n",
        "ing"
      ],
      [
        "at",
        "ing"
      ],
      [
        "it",
        "ial"
      ],
      [
        "Ġs",
        "ide"
      ],
      [
        "Ġp",
        "q"
      ],
      [
        "Ġp",
        "attern"
      ],
      [
        "ur",
        "ce"
      ],
      [
        "Ġl",
        "ast"
      ],
      [
        "ĠO",
        "ptional"
      ],
      [
        "Ġan",
        "y"
      ],
      [
        "Ġd",
        "uplic"
      ],
      [
        "Ġr",
        "ust"
      ],
      [
        "Ġlo",
        "ad"
      ],
      [
        "ĠH",
        "ash"
      ],
      [
        "Ġmax",
        "Left"
      ],
      [
        "Ġvalid",
        "ate"
      ],
      [
        "',",
        "'"
      ],
      [
        "Ġqu",
        "eries"
      ],
      [
        "ĠR",
        "ust"
      ],
      [
        "Ġsmalle",
        "r"
      ],
      [
        "Ġobject",
        "s"
      ],
      [
        "d",
        "ge"
      ],
      [
        "e",
        "xt"
      ],
      [
        "h",
        "as"
      ],
      [
        "r",
        "ust"
      ],
      [
        "y",
        "st"
      ],
      [
        "it",
        "s"
      ],
      [
        "Ġc",
        "le"
      ],
      [
        "Ġs",
        "ynchron"
      ],
      [
        "de",
        "red"
      ],
      [
        "ut",
        "o"
      ],
      [
        "ul",
        "ar"
      ],
      [
        "Ġr",
        "b"
      ],
      [
        "ĠF",
        "alse"
      ],
      [
        "ĠW",
        "rap"
      ],
      [
        "ĠN",
        "ode"
      ],
      [
        "Ġpro",
        "cess"
      ],
      [
        "Ġk",
        "th"
      ],
      [
        "Ġyo",
        "u"
      ],
      [
        "fin",
        "ity"
      ],
      [
        "yst",
        "em"
      ],
      [
        ".",
        ","
      ],
      [
        "0",
        "0"
      ],
      [
        "D",
        "e"
      ],
      [
        "t",
        "ime"
      ],
      [
        "w",
        "ord"
      ],
      [
        "Ġ",
        "9"
      ],
      [
        "Ġ",
        "Not"
      ],
      [
        "st",
        "ack"
      ],
      [
        "Ġs",
        "wap"
      ],
      [
        "Ġn",
        "ormal"
      ],
      [
        "Ġe",
        "qual"
      ],
      [
        "ic",
        "ate"
      ],
      [
        "Ġo",
        "utput"
      ],
      [
        "um",
        "b"
      ],
      [
        "Ġde",
        "te"
      ],
      [
        "Ġde",
        "queue"
      ],
      [
        "Ġhe",
        "l"
      ],
      [
        "ĠC",
        "on"
      ],
      [
        "red",
        "icate"
      ],
      [
        "ĠTh",
        "is"
      ],
      [
        "ĠSt",
        "ring"
      ],
      [
        "Ġupd",
        "ate"
      ],
      [
        "Ġext",
        "ra"
      ],
      [
        "Ġacc",
        "umul"
      ],
      [
        "Ġtrans",
        "form"
      ],
      [
        "temp",
        "t"
      ],
      [
        "V",
        "al"
      ],
      [
        "b",
        "eg"
      ],
      [
        "c",
        "c"
      ],
      [
        "j",
        "o"
      ],
      [
        "t",
        "end"
      ],
      [
        "w",
        "ard"
      ],
[...]
